{
  "version": "1.0",
  "truncation": null,
  "padding": null,
  "added_tokens": [
    {
      "id": 0,
      "content": "<pad>",
      "single_word": false,
      "lstrip": false,
      "rstrip": false,
      "normalized": false,
      "special": true
    },
    {
      "id": 1,
      "content": "<unk>",
      "single_word": false,
      "lstrip": false,
      "rstrip": false,
      "normalized": false,
      "special": true
    },
    {
      "id": 2,
      "content": "<bos>",
      "single_word": false,
      "lstrip": false,
      "rstrip": false,
      "normalized": false,
      "special": true
    },
    {
      "id": 3,
      "content": "<eos>",
      "single_word": false,
      "lstrip": false,
      "rstrip": false,
      "normalized": false,
      "special": true
    }
  ],
  "normalizer": {
    "type": "Sequence",
    "normalizers": [
      {
        "type": "NFC"
      }
    ]
  },
  "pre_tokenizer": {
    "type": "ByteLevel",
    "add_prefix_space": true,
    "trim_offsets": true,
    "use_regex": true
  },
  "post_processor": {
    "type": "TemplateProcessing",
    "single": [
      {
        "SpecialToken": {
          "id": "<bos>",
          "type_id": 0
        }
      },
      {
        "Sequence": {
          "id": "A",
          "type_id": 0
        }
      },
      {
        "SpecialToken": {
          "id": "<eos>",
          "type_id": 0
        }
      }
    ],
    "pair": [
      {
        "SpecialToken": {
          "id": "<bos>",
          "type_id": 0
        }
      },
      {
        "Sequence": {
          "id": "A",
          "type_id": 0
        }
      },
      {
        "SpecialToken": {
          "id": "<eos>",
          "type_id": 0
        }
      },
      {
        "Sequence": {
          "id": "B",
          "type_id": 1
        }
      },
      {
        "SpecialToken": {
          "id": "<eos>",
          "type_id": 1
        }
      }
    ],
    "special_tokens": {
      "<bos>": {
        "id": "<bos>",
        "ids": [
          2
        ],
        "tokens": [
          "<bos>"
        ]
      },
      "<eos>": {
        "id": "<eos>",
        "ids": [
          3
        ],
        "tokens": [
          "<eos>"
        ]
      }
    }
  },
  "decoder": {
    "type": "ByteLevel",
    "add_prefix_space": true,
    "trim_offsets": true,
    "use_regex": true
  },
  "model": {
    "type": "BPE",
    "dropout": null,
    "unk_token": "<unk>",
    "continuing_subword_prefix": null,
    "end_of_word_suffix": null,
    "fuse_unk": false,
    "byte_fallback": false,
    "ignore_merges": false,
    "vocab": {
      "<pad>": 0,
      "<unk>": 1,
      "<bos>": 2,
      "<eos>": 3,
      "!": 4,
      "\"": 5,
      "#": 6,
      "$": 7,
      "%": 8,
      "&": 9,
      "'": 10,
      "(": 11,
      ")": 12,
      "*": 13,
      "+": 14,
      ",": 15,
      "-": 16,
      ".": 17,
      "/": 18,
      "0": 19,
      "1": 20,
      "2": 21,
      "3": 22,
      "4": 23,
      "5": 24,
      "6": 25,
      "7": 26,
      "8": 27,
      "9": 28,
      ":": 29,
      ";": 30,
      "<": 31,
      "=": 32,
      ">": 33,
      "?": 34,
      "@": 35,
      "A": 36,
      "B": 37,
      "C": 38,
      "D": 39,
      "E": 40,
      "F": 41,
      "G": 42,
      "H": 43,
      "I": 44,
      "J": 45,
      "K": 46,
      "L": 47,
      "M": 48,
      "N": 49,
      "O": 50,
      "P": 51,
      "Q": 52,
      "R": 53,
      "S": 54,
      "T": 55,
      "U": 56,
      "V": 57,
      "W": 58,
      "X": 59,
      "Y": 60,
      "Z": 61,
      "[": 62,
      "\\": 63,
      "]": 64,
      "^": 65,
      "_": 66,
      "`": 67,
      "a": 68,
      "b": 69,
      "c": 70,
      "d": 71,
      "e": 72,
      "f": 73,
      "g": 74,
      "h": 75,
      "i": 76,
      "j": 77,
      "k": 78,
      "l": 79,
      "m": 80,
      "n": 81,
      "o": 82,
      "p": 83,
      "q": 84,
      "r": 85,
      "s": 86,
      "t": 87,
      "u": 88,
      "v": 89,
      "w": 90,
      "x": 91,
      "y": 92,
      "z": 93,
      "{": 94,
      "|": 95,
      "}": 96,
      "~": 97,
      "¡": 98,
      "¢": 99,
      "£": 100,
      "¤": 101,
      "¥": 102,
      "¦": 103,
      "§": 104,
      "¨": 105,
      "©": 106,
      "ª": 107,
      "«": 108,
      "¬": 109,
      "®": 110,
      "¯": 111,
      "°": 112,
      "±": 113,
      "²": 114,
      "³": 115,
      "´": 116,
      "µ": 117,
      "¶": 118,
      "·": 119,
      "¸": 120,
      "¹": 121,
      "º": 122,
      "»": 123,
      "¼": 124,
      "½": 125,
      "¾": 126,
      "¿": 127,
      "Â": 128,
      "Ã": 129,
      "Ä": 130,
      "Å": 131,
      "Æ": 132,
      "Ç": 133,
      "È": 134,
      "É": 135,
      "Ê": 136,
      "Ë": 137,
      "Ì": 138,
      "Í": 139,
      "Î": 140,
      "Ï": 141,
      "Ð": 142,
      "Ñ": 143,
      "Ò": 144,
      "Ó": 145,
      "Ô": 146,
      "Õ": 147,
      "Ö": 148,
      "×": 149,
      "Ø": 150,
      "Ù": 151,
      "Ú": 152,
      "Û": 153,
      "Ü": 154,
      "Ý": 155,
      "Þ": 156,
      "ß": 157,
      "à": 158,
      "á": 159,
      "â": 160,
      "ã": 161,
      "ä": 162,
      "å": 163,
      "æ": 164,
      "ç": 165,
      "è": 166,
      "é": 167,
      "ê": 168,
      "ë": 169,
      "ì": 170,
      "í": 171,
      "î": 172,
      "ï": 173,
      "ð": 174,
      "ñ": 175,
      "ò": 176,
      "ó": 177,
      "ô": 178,
      "ĉ": 179,
      "Ċ": 180,
      "Ġ": 181,
      "ġ": 182,
      "Ģ": 183,
      "ģ": 184,
      "Ĥ": 185,
      "ĥ": 186,
      "Ħ": 187,
      "ħ": 188,
      "Ĩ": 189,
      "ĩ": 190,
      "Ī": 191,
      "ī": 192,
      "Ĭ": 193,
      "ĭ": 194,
      "Į": 195,
      "į": 196,
      "İ": 197,
      "ı": 198,
      "Ĳ": 199,
      "ĳ": 200,
      "Ĵ": 201,
      "ĵ": 202,
      "Ķ": 203,
      "ķ": 204,
      "ĸ": 205,
      "Ĺ": 206,
      "ĺ": 207,
      "Ļ": 208,
      "ļ": 209,
      "Ľ": 210,
      "ľ": 211,
      "Ŀ": 212,
      "ŀ": 213,
      "Ł": 214,
      "ł": 215,
      "Ń": 216,
      "Ġt": 217,
      "he": 218,
      "Ġa": 219,
      "in": 220,
      "Ġthe": 221,
      "Ġs": 222,
      "re": 223,
      "Ġw": 224,
      "on": 225,
      "er": 226,
      "nd": 227,
      "ed": 228,
      "at": 229,
      "Ġb": 230,
      "it": 231,
      "Ġo": 232,
      "Ġc": 233,
      "Ġf": 234,
      "Ġto": 235,
      "is": 236,
      "en": 237,
      "ou": 238,
      "Ġand": 239,
      "Ġp": 240,
      "or": 241,
      "ing": 242,
      "an": 243,
      "Ġh": 244,
      "es": 245,
      "Ġm": 246,
      "ar": 247,
      "as": 248,
      "Ġd": 249,
      "al": 250,
      "Ġin": 251,
      "Ġof": 252,
      "Ġl": 253,
      "om": 254,
      "Ġth": 255,
      "ic": 256,
      "il": 257,
      "ĠT": 258,
      "Ġn": 259,
      "Ġg": 260,
      "le": 261,
      "id": 262,
      "ion": 263,
      "ay": 264,
      "âĢ": 265,
      "Ġhe": 266,
      "Ġe": 267,
      "ĠS": 268,
      "ent": 269,
      "ot": 270,
      "ve": 271,
      "ut": 272,
      "Ġre": 273,
      "et": 274,
      "im": 275,
      "ad": 276,
      "Ġwas": 277,
      "st": 278,
      "ly": 279,
      "ac": 280,
      "Ġbe": 281,
      "ow": 282,
      "ĠI": 283,
      "Ġon": 284,
      "am": 285,
      "Ġit": 286,
      "ver": 287,
      "ig": 288,
      "ro": 289,
      "Ġthat": 290,
      "Ġu": 291,
      "ir": 292,
      "Ġy": 293,
      "Ġfor": 294,
      "el": 295,
      "ĠThe": 296,
      "Ġst": 297,
      "Ġis": 298,
      "ĠA": 299,
      "ol": 300,
      "ith": 301,
      "ur": 302,
      "ĠH": 303,
      "ec": 304,
      "Ġwith": 305,
      "se": 306,
      "ĠM": 307,
      "ĠC": 308,
      "ĠB": 309,
      "Ġha": 310,
      "Ġyou": 311,
      "Ġwh": 312,
      "ld": 313,
      "Ġsa": 314,
      "ke": 315,
      "ce": 316,
      "ter": 317,
      "Ġas": 318,
      "âĢĻ": 319,
      "Ġal": 320,
      "Ġwe": 321,
      "Ġan": 322,
      "pp": 323,
      "ri": 324,
      "ation": 325,
      "oo": 326,
      "ul": 327,
      "Ġr": 328,
      "ill": 329,
      "her": 330,
      "ch": 331,
      "ĠL": 332,
      "Ġ\"": 333,
      "un": 334,
      "Ġat": 335,
      "ant": 336,
      "ore": 337,
      "ĠP": 338,
      "Ġhis": 339,
      "ers": 340,
      "Ġher": 341,
      "if": 342,
      "ĠW": 343,
      "ag": 344,
      "Ġare": 345,
      "ht": 346,
      "Ġpl": 347,
      "ain": 348,
      "ould": 349,
      "Ġsaid": 350,
      "em": 351,
      "Ġnot": 352,
      "Ġcon": 353,
      "Ġne": 354,
      "ĠO": 355,
      "ĠHe": 356,
      "rom": 357,
      "Ġsh": 358,
      "ct": 359,
      "um": 360,
      "ĠD": 361,
      "Ġ1": 362,
      "'s": 363,
      "us": 364,
      "est": 365,
      "Ġcom": 366,
      "ate": 367,
      "Ġex": 368,
      "Ġ,": 369,
      "op": 370,
      "Ġso": 371,
      "ĠF": 372,
      "ĠâĢ": 373,
      "ĠR": 374,
      "Ġse": 375,
      "art": 376,
      "ab": 377,
      "Ġthey": 378,
      "Ġhave": 379,
      "The": 380,
      "and": 381,
      "ĠShe": 382,
      "ack": 383,
      "ist": 384,
      "Ġ2": 385,
      "th": 386,
      "red": 387,
      "ess": 388,
      "all": 389,
      "very": 390,
      "Ġup": 391,
      "Ġpro": 392,
      "ome": 393,
      "Ġ(": 394,
      "res": 395,
      "ked": 396,
      "Ġv": 397,
      "Ġli": 398,
      "rou": 399,
      "Ġfrom": 400,
      "Ġor": 401,
      "Ġhad": 402,
      "ĠThey": 403,
      "Ġshe": 404,
      "ard": 405,
      "Ġk": 406,
      "Ġdo": 407,
      "ight": 408,
      "ĠN": 409,
      "ĠJ": 410,
      "Ġby": 411,
      "ily": 412,
      "Ġbut": 413,
      "nt": 414,
      "ĠG": 415,
      "os": 416,
      "Ġsu": 417,
      "ort": 418,
      "Ġ.": 419,
      "qu": 420,
      "ĠE": 421,
      "ide": 422,
      "end": 423,
      "Ġj": 424,
      "ive": 425,
      "Ġsp": 426,
      "ity": 427,
      "ust": 428,
      "Ġch": 429,
      "ear": 430,
      "out": 431,
      "ime": 432,
      "ap": 433,
      "Ġthis": 434,
      "ry": 435,
      "Ġde": 436,
      "ect": 437,
      "Ġcan": 438,
      "Ġab": 439,
      "ment": 440,
      "ies": 441,
      "Ġplay": 442,
      "ally": 443,
      "Ġwere": 444,
      "Ġday": 445,
      "ne": 446,
      "Ġout": 447,
      "Ġtheir": 448,
      "ud": 449,
      "Ġwor": 450,
      "Ġall": 451,
      "oc": 452,
      "Ġgo": 453,
      "ast": 454,
      "ake": 455,
      "âĢĿ": 456,
      "ell": 457,
      "ame": 458,
      "Ġwhe": 459,
      "ak": 460,
      "00": 461,
      "Ġthere": 462,
      "Ġtime": 463,
      "itt": 464,
      "ong": 465,
      "our": 466,
      "ie": 467,
      "ĠIt": 468,
      "one": 469,
      "od": 470,
      "ind": 471,
      "ost": 472,
      "Ġhas": 473,
      "ice": 474,
      "ra": 475,
      "Ġle": 476,
      "ge": 477,
      "Ġwill": 478,
      "Ġwant": 479,
      "Ġwho": 480,
      "are": 481,
      "ther": 482,
      "Ġcl": 483,
      "ook": 484,
      "ved": 485,
      "Ġme": 486,
      "Ġint": 487,
      "gh": 488,
      "ial": 489,
      "ure": 490,
      "ep": 491,
      "pl": 492,
      "ich": 493,
      "ood": 494,
      "Ġthem": 495,
      "ous": 496,
      "au": 497,
      "ĠâĢľ": 498,
      "ĠU": 499,
      "Ġvery": 500,
      "ff": 501,
      "Ġwould": 502,
      "Ġman": 503,
      "Ġmore": 504,
      "ine": 505,
      "Ġhapp": 506,
      "Ġmom": 507,
      "Ġtr": 508,
      "Ġag": 509,
      "iv": 510,
      "Ġone": 511,
      "'t": 512,
      "ĠLily": 513,
      ".\"": 514,
      "Ġad": 515,
      "own": 516,
      "my": 517,
      "Ġhim": 518,
      "ays": 519,
      "Ġlike": 520,
      "Ġabout": 521,
      "Ġsm": 522,
      "ber": 523,
      "ue": 524,
      "Ġsc": 525,
      "ia": 526,
      "Ġsome": 527,
      "ans": 528,
      "pt": 529,
      "age": 530,
      "Ġus": 531,
      "ions": 532,
      "act": 533,
      "ated": 534,
      "hed": 535,
      "uc": 536,
      "ittle": 537,
      "ark": 538,
      "Ġyour": 539,
      "Ġother": 540,
      "ace": 541,
      "Ġcould": 542,
      "Ġen": 543,
      "iz": 544,
      "ip": 545,
      "Ġlittle": 546,
      "ĠY": 547,
      "Ġim": 548,
      "Ġbig": 549,
      "ound": 550,
      "ĠK": 551,
      "Ġfe": 552,
      "Ġoff": 553,
      "Ġnew": 554,
      "ub": 555,
      "oy": 556,
      "ĠTh": 557,
      "cc": 558,
      "ite": 559,
      "ick": 560,
      "ree": 561,
      "Ġdid": 562,
      "Ġtoo": 563,
      "hing": 564,
      "Ġwhat": 565,
      "Ġcont": 566,
      "ile": 567,
      "og": 568,
      "so": 569,
      "riend": 570,
      "Ġwhich": 571,
      "ary": 572,
      "round": 573,
      "per": 574,
      "Ġcomp": 575,
      "ings": 576,
      "nce": 577,
      "ven": 578,
      "ĠIn": 579,
      "Ġro": 580,
      "ĠSt": 581,
      "Ġwhen": 582,
      "ass": 583,
      "Ġbec": 584,
      "able": 585,
      "Ġfriend": 586,
      "Ġback": 587,
      "Ġpe": 588,
      "Ġno": 589,
      "ign": 590,
      "ade": 591,
      "Ġthan": 592,
      "Ġ20": 593,
      "Ġun": 594,
      "ll": 595,
      "Ġbeen": 596,
      "ach": 597,
      "Ġlo": 598,
      "fter": 599,
      "Ġover": 600,
      "Ġyear": 601,
      "Ġmy": 602,
      "ire": 603,
      "Ġget": 604,
      "av": 605,
      "ere": 606,
      "Ġhappy": 607,
      "ond": 608,
      "Ġsaw": 609,
      "ks": 610,
      "Ġinc": 611,
      "Ġpr": 612,
      "low": 613,
      "Ġits": 614,
      "Ġper": 615,
      "Ġar": 616,
      "Ġres": 617,
      "Ġkn": 618,
      "Ġqu": 619,
      "Ġalso": 620,
      "reat": 621,
      "Ġany": 622,
      "ord": 623,
      "Ġhel": 624,
      "ress": 625,
      "orm": 626,
      "Ġ=": 627,
      "ful": 628,
      "Ġtw": 629,
      "Ġdis": 630,
      "ug": 631,
      "ĠĊ": 632,
      "ance": 633,
      "ase": 634,
      "Ġgr": 635,
      "Ġapp": 636,
      "Ġinto": 637,
      "ical": 638,
      "mer": 639,
      "ople": 640,
      "ence": 641,
      "Ġhelp": 642,
      "int": 643,
      "ail": 644,
      "ount": 645,
      "Ġjust": 646,
      "Ġpre": 647,
      "Ġif": 648,
      "Ġdec": 649,
      "Ġpart": 650,
      "port": 651,
      "ble": 652,
      "Ġsee": 653,
      "ations": 654,
      "ult": 655,
      "ose": 656,
      "ater": 657,
      "!\"": 658,
      "irl": 659,
      "ĠCh": 660,
      "irst": 661,
      "Ġmake": 662,
      "Ġ19": 663,
      "Ġbr": 664,
      "ang": 665,
      "Ġpeople": 666,
      "Ġagain": 667,
      "Ġ201": 668,
      "Ġ3": 669,
      "ish": 670,
      "ob": 671,
      "ĠOnce": 672,
      "old": 673,
      "ĠTim": 674,
      "Ġwanted": 675,
      "Ġhow": 676,
      "omet": 677,
      "ĠV": 678,
      "ause": 679,
      "ited": 680,
      "Ġbl": 681,
      "ens": 682,
      "ory": 683,
      "Ġstart": 684,
      "Ġte": 685,
      "get": 686,
      "Ġrec": 687,
      "side": 688,
      "ild": 689,
      "vel": 690,
      "Ġgirl": 691,
      "ious": 692,
      ",\"": 693,
      "ors": 694,
      "uch": 695,
      "ink": 696,
      "Ġour": 697,
      "Ġupon": 698,
      "nder": 699,
      "ian": 700,
      "ĠBut": 701,
      "way": 702,
      "Ġthen": 703,
      "ict": 704,
      "ght": 705,
      "Ġaround": 706,
      "Ġwork": 707,
      "ents": 708,
      "Ġ'": 709,
      "Ġmade": 710,
      "Ġfirst": 711,
      "Ġevery": 712,
      "Ġtwo": 713,
      "Ġlook": 714,
      "Ġwent": 715,
      "ition": 716,
      "Ġbet": 717,
      "urn": 718,
      "uct": 719,
      "Ġco": 720,
      "Ġfun": 721,
      "Ġ@": 722,
      "hen": 723,
      "Ġafter": 724,
      "ft": 725,
      "Ġam": 726,
      "Ġknow": 727,
      "Ġcar": 728,
      "Ġsomet": 729,
      "amp": 730,
      "igh": 731,
      "ise": 732,
      "Ġ-": 733,
      "ĠYou": 734,
      "we": 735,
      "Ġgood": 736,
      "Ġact": 737,
      "wn": 738,
      "ons": 739,
      "ĠOne": 740,
      "Ġneed": 741,
      "amed": 742,
      "Ġpol": 743,
      "Ġsays": 744,
      "Ġonly": 745,
      "Ġdown": 746,
      "Ġcr": 747,
      "ough": 748,
      "other": 749,
      "ĠBen": 750,
      "Ġacc": 751,
      "Ġfriends": 752,
      "ates": 753,
      "vers": 754,
      "Ġstr": 755,
      "Ġser": 756,
      "form": 757,
      "Ġunder": 758,
      "ared": 759,
      "ĠWe": 760,
      "Ġbecause": 761,
      "ning": 762,
      "Th": 763,
      "lect": 764,
      "ird": 765,
      "ving": 766,
      "Ġpo": 767,
      "als": 768,
      "Ġfound": 769,
      "Ġke": 770,
      "Ġatt": 771,
      "ove": 772,
      "anc": 773,
      "Ġshow": 774,
      "ax": 775,
      "ys": 776,
      ".âĢĿ": 777,
      "iss": 778,
      "ĠTom": 779,
      "?\"": 780,
      "elf": 781,
      "iff": 782,
      "Ġeven": 783,
      "elt": 784,
      "ave": 785,
      "aw": 786,
      "fore": 787,
      "ew": 788,
      "Ġmany": 789,
      "ubl": 790,
      "oth": 791,
      "Ġmuch": 792,
      "ident": 793,
      "Ġsomething": 794,
      "ĠâĢĵ": 795,
      "les": 796,
      "Ġcomm": 797,
      "Ġasked": 798,
      "Ġcol": 799,
      "iled": 800,
      "Ġdes": 801,
      "Ġmost": 802,
      "Ġput": 803,
      "ouse": 804,
      "Ġwr": 805,
      "Ġnow": 806,
      "Ġrem": 807,
      "hn": 808,
      "Ġhome": 809,
      "Ġcall": 810,
      "xt": 811,
      "Ġfl": 812,
      "vent": 813,
      "Ġ4": 814,
      "ump": 815,
      "lud": 816,
      "ĠAnd": 817,
      "ĠAn": 818,
      "Ġdon": 819,
      "ied": 820,
      "ty": 821,
      "Ġnamed": 822,
      "Ġfind": 823,
      "Ġloo": 824,
      "Ġaway": 825,
      "rough": 826,
      "Ġlong": 827,
      "Ġran": 828,
      "Ġend": 829,
      "day": 830,
      "Ġspec": 831,
      "Ġway": 832,
      "Ġbu": 833,
      "Ġyears": 834,
      "Ġtake": 835,
      "Ġwhere": 836,
      "man": 837,
      "Ġfelt": 838,
      "Ġexc": 839,
      "alk": 840,
      "aking": 841,
      "tern": 842,
      "Ġthings": 843,
      "Ġdiff": 844,
      "Ġ5": 845,
      "Ġsec": 846,
      "Ġbeing": 847,
      "Ġsay": 848,
      "Ġbo": 849,
      "Ġshould": 850,
      ",âĢĿ": 851,
      "pped": 852,
      "Ġop": 853,
      "Ġlooked": 854,
      "Ġthrough": 855,
      "Ġgot": 856,
      "Ġind": 857,
      "Ġfin": 858,
      "ull": 859,
      "Ġadd": 860,
      "ought": 861,
      "Ġloved": 862,
      "Ġrun": 863,
      "ating": 864,
      "Ġstarted": 865,
      "Ġcare": 866,
      "Ġboy": 867,
      "ered": 868,
      "ried": 869,
      "Ġright": 870,
      "Ġem": 871,
      "Ġsmiled": 872,
      "Ġbefore": 873,
      "Ġsur": 874,
      "ath": 875,
      "ward": 876,
      "ided": 877,
      "atch": 878,
      "gether": 879,
      "Ġtogether": 880,
      "Ġrel": 881,
      "Ġfeel": 882,
      "-@": 883,
      "Ġ@-@": 884,
      "Ġhand": 885,
      "âĢľ": 886,
      "Ġlot": 887,
      "ased": 888,
      "ĠUn": 889,
      "pect": 890,
      "Ġ200": 891,
      "ĠThis": 892,
      "Ġown": 893,
      "Ġuse": 894,
      "Ġsupp": 895,
      "Ġinclud": 896,
      "enc": 897,
      "ual": 898,
      "pe": 899,
      "ĠWh": 900,
      "ock": 901,
      "hes": 902,
      "Ġinv": 903,
      "ank": 904,
      "uck": 905,
      "ting": 906,
      "uring": 907,
      "ren": 908,
      "Ġmay": 909,
      "ves": 910,
      "ix": 911,
      "Ġthese": 912,
      "ib": 913,
      "ways": 914,
      "..": 915,
      "ject": 916,
      "ont": 917,
      "ss": 918,
      "Ġ$": 919,
      "oss": 920,
      "iew": 921,
      "pr": 922,
      "Ġcons": 923,
      "gan": 924,
      "up": 925,
      "Ġstill": 926,
      "ublic": 927,
      "Ġthink": 928,
      "Ġwhile": 929,
      "ational": 930,
      "Ġcame": 931,
      "Ġmon": 932,
      "air": 933,
      "Ġreg": 934,
      "âĤ": 935,
      "ĠTimmy": 936,
      "Ġbird": 937,
      "âĤ¬": 938,
      "Ġwell": 939,
      "ĠâĢĶ": 940,
      "ged": 941,
      "Ġdoes": 942,
      "Ġimp": 943,
      "let": 944,
      "It": 945,
      "Ġac": 946,
      "Ġgoing": 947,
      "Ã¢": 948,
      "Ġeach": 949,
      "ollow": 950,
      "led": 951,
      "ady": 952,
      "Ġdidn": 953,
      "az": 954,
      "ason": 955,
      "Ġexpl": 956,
      "Ġsy": 957,
      "ures": 958,
      "Ġalways": 959,
      "ife": 960,
      "na": 961,
      "Ġph": 962,
      "Ġfam": 963,
      "rib": 964,
      "ened": 965,
      "ities": 966,
      "Ġpres": 967,
      "Ġpark": 968,
      "Ġfr": 969,
      "Ġtold": 970,
      "Ġold": 971,
      "Ġboth": 972,
      "Ġtook": 973,
      "gr": 974,
      "Ġhigh": 975,
      "Ġdef": 976,
      "Ġgame": 977,
      "ĠJo": 978,
      "Ġnever": 979,
      "ned": 980,
      "ny": 981,
      "ters": 982,
      "Ġsuch": 983,
      "Ġset": 984,
      "arly": 985,
      "Ġcount": 986,
      "ics": 987,
      "Ġworld": 988,
      "ert": 989,
      "Ġ)": 990,
      "meric": 991,
      "vern": 992,
      "In": 993,
      "ible": 994,
      "ower": 995,
      "Ġplaying": 996,
      "Ġass": 997,
      "Ġdiffere": 998,
      "ific": 999,
      "Ġbest": 1000,
      "Ġthought": 1001,
      "ative": 1002,
      "Ġlast": 1003,
      "ĠBr": 1004,
      "Ġlear": 1005,
      "ĠTr": 1006,
      "ool": 1007,
      "Ġgu": 1008,
      "ms": 1009,
      "its": 1010,
      "Ġreal": 1011,
      "ince": 1012,
      "Ġthree": 1013,
      "ener": 1014,
      "Ġthose": 1015,
      "Ġgreat": 1016,
      "Ġcle": 1017,
      "erson": 1018,
      "ars": 1019,
      "und": 1020,
      "ually": 1021,
      "Wh": 1022,
      ").": 1023,
      "Ġdr": 1024,
      "ange": 1025,
      "Ġsad": 1026,
      "ĠNew": 1027,
      "Ġsk": 1028,
      "duct": 1029,
      "ah": 1030,
      "str": 1031,
      "Ġche": 1032,
      "Ġstud": 1033,
      "ner": 1034,
      "Ġ6": 1035,
      "olog": 1036,
      "Ġent": 1037,
      "Ġtry": 1038,
      "But": 1039,
      "land": 1040,
      "Ġlet": 1041,
      "ĠAmeric": 1042,
      "One": 1043,
      "Ġsw": 1044,
      "Ġfollow": 1045,
      "Ġpoint": 1046,
      "Ġused": 1047,
      "ier": 1048,
      "Ġcur": 1049,
      "Ġ[": 1050,
      "ph": 1051,
      "Ġsub": 1052,
      "Ġsmall": 1053,
      "arm": 1054,
      "Ġsl": 1055,
      "Ġteam": 1056,
      "ues": 1057,
      "ork": 1058,
      "arch": 1059,
      "Ġmin": 1060,
      "ments": 1061,
      "Ġbel": 1062,
      "Ġdecided": 1063,
      "self": 1064,
      "ng": 1065,
      "ement": 1066,
      "ember": 1067,
      "Ġhere": 1068,
      "ĠRe": 1069,
      "ather": 1070,
      "ility": 1071,
      "ĠAs": 1072,
      "hip": 1073,
      "akes": 1074,
      "We": 1075,
      "ames": 1076,
      "ov": 1077,
      "Ġunt": 1078,
      "Ġcome": 1079,
      "ished": 1080,
      "ĠAl": 1081,
      "Ġob": 1082,
      "ins": 1083,
      "den": 1084,
      "Ġbetter": 1085,
      "Ġwee": 1086,
      "ween": 1087,
      "Ġdisc": 1088,
      "Ġeff": 1089,
      "Ġcre": 1090,
      "Ġprov": 1091,
      "Ġnum": 1092,
      "Ġret": 1093,
      "com": 1094,
      "Ġwater": 1095,
      "Ġlist": 1096,
      "Ġspecial": 1097,
      "io": 1098,
      "ized": 1099,
      "stem": 1100,
      "Ġlead": 1101,
      "roup": 1102,
      "ee": 1103,
      "Ġsign": 1104,
      "imes": 1105,
      "iel": 1106,
      "Ġsame": 1107,
      "Ġhard": 1108,
      "Ġreally": 1109,
      "ient": 1110,
      "Ġoutside": 1111,
      "Ġreport": 1112,
      "ck": 1113,
      "new": 1114,
      "Ġbetween": 1115,
      "Ġagainst": 1116,
      "Ġdog": 1117,
      "ote": 1118,
      "Ġuntil": 1119,
      "They": 1120,
      "000": 1121,
      "Ġconf": 1122,
      "irect": 1123,
      "Ġball": 1124,
      "velop": 1125,
      "ever": 1126,
      "Ġgovern": 1127,
      "Ġgl": 1128,
      "Ġchar": 1129,
      "Ġturn": 1130,
      "Ġnext": 1131,
      "ĠAr": 1132,
      "ale": 1133,
      "ĠSo": 1134,
      "ised": 1135,
      "any": 1136,
      "att": 1137,
      "),": 1138,
      "Lily": 1139,
      "Ġexcited": 1140,
      "oun": 1141,
      "Ġref": 1142,
      "unk": 1143,
      "Ġhead": 1144,
      "Ġbus": 1145,
      "Ġdifferent": 1146,
      "Ġsim": 1147,
      "thing": 1148,
      "Ġ7": 1149,
      "Ġhug": 1150,
      "Ġcalled": 1151,
      "ane": 1152,
      "Ġcour": 1153,
      "br": 1154,
      "Ġbook": 1155,
      "Ġinter": 1156,
      "Ġchild": 1157,
      "ices": 1158,
      "uss": 1159,
      "ists": 1160,
      "ret": 1161,
      "Ġide": 1162,
      "Ġed": 1163,
      "Ġliked": 1164,
      "Ġhouse": 1165,
      "ĠCom": 1166,
      "illion": 1167,
      "ired": 1168,
      "Ġmod": 1169,
      "Ġmed": 1170,
      "der": 1171,
      "ution": 1172,
      "Ġexp": 1173,
      "alth": 1174,
      "Ġwa": 1175,
      "iet": 1176,
      "--": 1177,
      "Ġkind": 1178,
      "Ġ10": 1179,
      "Ġ<": 1180,
      "by": 1181,
      "ash": 1182,
      "Ġter": 1183,
      "ism": 1184,
      "ular": 1185,
      "Ġkeep": 1186,
      "ĠSp": 1187,
      "ott": 1188,
      "ĠSam": 1189,
      "Ġimport": 1190,
      "He": 1191,
      "Ġtrans": 1192,
      "Ġred": 1193,
      "Ġcontin": 1194,
      "oot": 1195,
      "cept": 1196,
      "Ġext": 1197,
      "ef": 1198,
      "ross": 1199,
      "Ġexper": 1200,
      "ĠMom": 1201,
      "Ġanother": 1202,
      "Ġplace": 1203,
      "Ġloc": 1204,
      "âĢĶ": 1205,
      "ience": 1206,
      "chool": 1207,
      "Ġlove": 1208,
      "ike": 1209,
      "Ġinst": 1210,
      "be": 1211,
      "Ġduring": 1212,
      "Ġfamily": 1213,
      "Ġmet": 1214,
      "Ġfew": 1215,
      "ĠCl": 1216,
      "Ġroom": 1217,
      "here": 1218,
      "Ġ8": 1219,
      "ĠSh": 1220,
      "Ġsystem": 1221,
      "Ġev": 1222,
      "ines": 1223,
      "Ġsupport": 1224,
      "Ġperson": 1225,
      "Ġgroup": 1226,
      "Ġcap": 1227,
      "orn": 1228,
      "ets": 1229,
      "Ġlar": 1230,
      "Ġscared": 1231,
      "ĠLe": 1232,
      "Ġdet": 1233,
      "Ġlaw": 1234,
      "ision": 1235,
      "Ġknew": 1236,
      "ger": 1237,
      "Ġrep": 1238,
      "lease": 1239,
      "ute": 1240,
      "Ġpret": 1241,
      "ric": 1242,
      "Ġdad": 1243,
      "ched": 1244,
      "Ġcent": 1245,
      "'m": 1246,
      "oll": 1247,
      "Ġread": 1248,
      "Ġdevelop": 1249,
      "Ġ9": 1250,
      "Ġplayed": 1251,
      "Ġoffic": 1252,
      "cent": 1253,
      "Ġwom": 1254,
      "ield": 1255,
      "cess": 1256,
      "iting": 1257,
      "ts": 1258,
      "Ġlife": 1259,
      "Ġtop": 1260,
      "uth": 1261,
      "ined": 1262,
      "ton": 1263,
      "Ġdel": 1264,
      "Ġpass": 1265,
      "Ġfil": 1266,
      "Ġgovernment": 1267,
      "ages": 1268,
      "Ġlau": 1269,
      "Ġbelie": 1270,
      "Ġfore": 1271,
      "Ġtree": 1272,
      "ness": 1273,
      "Ġsaf": 1274,
      "Ġleg": 1275,
      "Ġgiv": 1276,
      "iness": 1277,
      "Ġgener": 1278,
      "ara": 1279,
      "ĠThat": 1280,
      "Ġgave": 1281,
      "Ġinside": 1282,
      "ĠIs": 1283,
      "ivers": 1284,
      "ense": 1285,
      "Ġbre": 1286,
      "Ġmight": 1287,
      "Ġpublic": 1288,
      "Ġfact": 1289,
      "Ġdirect": 1290,
      "bers": 1291,
      "Ġbuild": 1292,
      "Ġrequ": 1293,
      "ling": 1294,
      "ces": 1295,
      "ained": 1296,
      "ody": 1297,
      "Ġstate": 1298,
      "Ġless": 1299,
      "con": 1300,
      "Ġbeh": 1301,
      "ants": 1302,
      "Ġins": 1303,
      "Ġart": 1304,
      "ially": 1305,
      "gest": 1306,
      "ced": 1307,
      "ĠIf": 1308,
      "oney": 1309,
      "aj": 1310,
      "Ġfar": 1311,
      "med": 1312,
      "Ġimportant": 1313,
      "Ġopen": 1314,
      "Ġtried": 1315,
      "Ġplan": 1316,
      "Ġmonth": 1317,
      "Ġanim": 1318,
      "Ġmark": 1319,
      "ĠJohn": 1320,
      "ĠThere": 1321,
      "Ġsecond": 1322,
      "Ġtoys": 1323,
      "Ġsince": 1324,
      "ize": 1325,
      "Ġdep": 1326,
      "Ġprot": 1327,
      "Ġdist": 1328,
      "reen": 1329,
      "Ġel": 1330,
      "Ġheard": 1331,
      "ats": 1332,
      "Ġinf": 1333,
      "erest": 1334,
      "ĠFr": 1335,
      "vice": 1336,
      "osed": 1337,
      "Ġ0": 1338,
      "ĠWhen": 1339,
      "This": 1340,
      "ically": 1341,
      "Ġmommy": 1342,
      "aut": 1343,
      "view": 1344,
      "arl": 1345,
      "Ġwalk": 1346,
      "Ġprom": 1347,
      "You": 1348,
      "Ġiss": 1349,
      "Ġpower": 1350,
      "Ġgive": 1351,
      "ording": 1352,
      "ĠMax": 1353,
      "ex": 1354,
      "Ġleft": 1355,
      "ows": 1356,
      "orry": 1357,
      "Ġmo": 1358,
      "ern": 1359,
      "Ġmem": 1360,
      "Ġcor": 1361,
      "20": 1362,
      "ital": 1363,
      "ĠFor": 1364,
      "ok": 1365,
      "Ġresp": 1366,
      "Ġsing": 1367,
      "Ġav": 1368,
      "ple": 1369,
      "oud": 1370,
      "Ġsun": 1371,
      "less": 1372,
      "Ġbro": 1373,
      "Ġstory": 1374,
      "Ġdri": 1375,
      "Ġ18": 1376,
      "Ġwithout": 1377,
      "Ġcouldn": 1378,
      "Ġseem": 1379,
      "Ġmove": 1380,
      "denly": 1381,
      "Ġbox": 1382,
      "ata": 1383,
      "Ġnumber": 1384,
      "Ġhop": 1385,
      "Ġcommun": 1386,
      "Ġopp": 1387,
      "Ġstand": 1388,
      "ama": 1389,
      "Ġever": 1390,
      "Ġelect": 1391,
      "Ġfour": 1392,
      "Ġvis": 1393,
      "Ġposs": 1394,
      "outh": 1395,
      "ional": 1396,
      "ĠCan": 1397,
      "Ġspe": 1398,
      "Ġquest": 1399,
      "Ġtra": 1400,
      "Ġpost": 1401,
      "ries": 1402,
      "Ġtell": 1403,
      "rop": 1404,
      "Ġwar": 1405,
      "gram": 1406,
      "Ġcareful": 1407,
      "Ġbad": 1408,
      "Ġincluding": 1409,
      "Ġinform": 1410,
      "ĠEvery": 1411,
      "gy": 1412,
      "Ġproduct": 1413,
      "Ġwin": 1414,
      "ĠHis": 1415,
      "'re": 1416,
      "ĠBl": 1417,
      "ox": 1418,
      "son": 1419,
      "ĠHer": 1420,
      "Ġpop": 1421,
      "Ġpri": 1422,
      "ately": 1423,
      "Ġschool": 1424,
      "Ġthing": 1425,
      "Ġresult": 1426,
      "rent": 1427,
      "min": 1428,
      "Ġmaking": 1429,
      "Ġinterest": 1430,
      "Ġinvest": 1431,
      "Ġwhy": 1432,
      "ral": 1433,
      "Ġrest": 1434,
      "stand": 1435,
      "Ġtoy": 1436,
      "ued": 1437,
      "Ġnight": 1438,
      "Ġmus": 1439,
      "Ġpolit": 1440,
      "Ġpur": 1441,
      "Ġnice": 1442,
      "ream": 1443,
      "ains": 1444,
      "ĠJack": 1445,
      "Ġcamp": 1446,
      "Ġlater": 1447,
      "Ġconc": 1448,
      "Ġsure": 1449,
      "Ġmil": 1450,
      "Ġsoc": 1451,
      "Ġsorry": 1452,
      "ead": 1453,
      "roud": 1454,
      "ĠUS": 1455,
      "Ġproble": 1456,
      "Ġhum": 1457,
      "Ġmar": 1458,
      "Ġdem": 1459,
      "ĠAt": 1460,
      "Ġincre": 1461,
      "raw": 1462,
      "Ġmean": 1463,
      "ĠSc": 1464,
      "Ġsn": 1465,
      "Ġseason": 1466,
      "arent": 1467,
      "Ġable": 1468,
      "row": 1469,
      "Ġidea": 1470,
      "Ġname": 1471,
      "ider": 1472,
      "Ġtre": 1473,
      "Ġdesign": 1474,
      "echn": 1475,
      "ĠZ": 1476,
      "ten": 1477,
      "Ġstat": 1478,
      "Ġproud": 1479,
      "Ġstay": 1480,
      "ĠHow": 1481,
      "Ġstrong": 1482,
      "Ġcontro": 1483,
      "Ġpartic": 1484,
      "ĠAnna": 1485,
      "Ġval": 1486,
      "Ġbit": 1487,
      "co": 1488,
      "Ġweek": 1489,
      "inal": 1490,
      "line": 1491,
      "ature": 1492,
      "abb": 1493,
      "Ġeas": 1494,
      "Ġhaving": 1495,
      ".[": 1496,
      "ĠTrump": 1497,
      "Ġfull": 1498,
      "Ġfood": 1499,
      "Ġmain": 1500,
      "Ġair": 1501,
      "When": 1502,
      "Ġfree": 1503,
      "Ġnear": 1504,
      "used": 1505,
      "What": 1506,
      "orth": 1507,
      "Ġlooking": 1508,
      "Ġpat": 1509,
      "app": 1510,
      "aim": 1511,
      "ĠInd": 1512,
      "ode": 1513,
      "ĠMay": 1514,
      "Ġflow": 1515,
      "Ġve": 1516,
      "ently": 1517,
      "the": 1518,
      "Ġform": 1519,
      "Ġmust": 1520,
      "ina": 1521,
      "Ġrece": 1522,
      "Ġey": 1523,
      "Ġmillion": 1524,
      "els": 1525,
      "rap": 1526,
      "Ġsoon": 1527,
      "Ġrepl": 1528,
      "aining": 1529,
      "atter": 1530,
      "ĠPro": 1531,
      "Ġhur": 1532,
      "rew": 1533,
      "oice": 1534,
      "Ġwind": 1535,
      "ĠâĢĺ": 1536,
      "ster": 1537,
      "Ġground": 1538,
      "Ġbeaut": 1539,
      "esp": 1540,
      "Ġusing": 1541,
      "ĠRep": 1542,
      "aring": 1543,
      "Ġshare": 1544,
      "Ġorgan": 1545,
      "ract": 1546,
      "ik": 1547,
      "Ġmoney": 1548,
      "ĠAll": 1549,
      "Ġquick": 1550,
      "Ġann": 1551,
      "duc": 1552,
      "Ġreturn": 1553,
      "Ġtest": 1554,
      "Ġjob": 1555,
      "Ġenough": 1556,
      "Ġprogram": 1557,
      "Ġsafe": 1558,
      "Ġbecame": 1559,
      "Ġclass": 1560,
      "ĠAd": 1561,
      "Ġpos": 1562,
      "Ġcountry": 1563,
      "uff": 1564,
      "Ġlearned": 1565,
      "ury": 1566,
      "Ġpay": 1567,
      "Ġsol": 1568,
      "As": 1569,
      "Ġbas": 1570,
      "Ġchildren": 1571,
      "dy": 1572,
      "Ġgrow": 1573,
      "ably": 1574,
      "opped": 1575,
      "Ġsit": 1576,
      "Ġseen": 1577,
      "Ġfav": 1578,
      "Ġeffect": 1579,
      "Ġpretty": 1580,
      "Ġdone": 1581,
      "ĠOn": 1582,
      "ney": 1583,
      "Ġhealth": 1584,
      "ajor": 1585,
      "Ġlight": 1586,
      "Ġtalk": 1587,
      "Ġsurpr": 1588,
      "Ġcat": 1589,
      "bs": 1590,
      "illed": 1591,
      "Ġmiss": 1592,
      "Ġbusiness": 1593,
      "Ġdays": 1594,
      "10": 1595,
      "Ġdoing": 1596,
      "Ġfle": 1597,
      "ĠAmerican": 1598,
      "Ġsound": 1599,
      "iver": 1600,
      "Ġjo": 1601,
      "Ġmor": 1602,
      "vious": 1603,
      "So": 1604,
      "Ġpercent": 1605,
      "Ġcase": 1606,
      "gry": 1607,
      "me": 1608,
      "ology": 1609,
      "That": 1610,
      "Ġ:": 1611,
      "ĠBe": 1612,
      "Ġty": 1613,
      "Ġwon": 1614,
      "ĠQ": 1615,
      "conom": 1616,
      "uro": 1617,
      "alked": 1618,
      "iny": 1619,
      "ency": 1620,
      "ured": 1621,
      "erv": 1622,
      "Ġhist": 1623,
      "uddenly": 1624,
      "Ġhold": 1625,
      "iful": 1626,
      "Ġword": 1627,
      "Ġperform": 1628,
      "Ġinformation": 1629,
      "Ġadv": 1630,
      "ma": 1631,
      "ator": 1632,
      "Ġprocess": 1633,
      "ister": 1634,
      "Ġallow": 1635,
      "Ġrecord": 1636,
      "Ġoper": 1637,
      "Ġpast": 1638,
      "Ġlarge": 1639,
      "ĠUnited": 1640,
      "Ġeat": 1641,
      "Ġface": 1642,
      "Ġcompany": 1643,
      "to": 1644,
      "ots": 1645,
      "ush": 1646,
      "Ġland": 1647,
      "Ġattack": 1648,
      "Ġlevel": 1649,
      "ley": 1650,
      "ids": 1651,
      "joy": 1652,
      "ards": 1653,
      "Ġprof": 1654,
      "Ġjump": 1655,
      "iversity": 1656,
      "Ġ199": 1657,
      "ives": 1658,
      "ccess": 1659,
      "ural": 1660,
      "ĠChr": 1661,
      "ĠThen": 1662,
      "sc": 1663,
      "Ġthough": 1664,
      "Ġalong": 1665,
      "Ġz": 1666,
      "Ġappro": 1667,
      "Ġbear": 1668,
      "Ġchange": 1669,
      "Ġvar": 1670,
      "Mom": 1671,
      "ĠPh": 1672,
      "Ġhugged": 1673,
      "Ġ12": 1674,
      "Ġwatch": 1675,
      "Ġest": 1676,
      "te": 1677,
      "Ġunderstand": 1678,
      "Ġclim": 1679,
      "ertain": 1680,
      "ready": 1681,
      "ĠFrom": 1682,
      "Ġnews": 1683,
      "ploy": 1684,
      "Ġchang": 1685,
      "Ġbeautiful": 1686,
      "Ġtechn": 1687,
      "ides": 1688,
      "Ġside": 1689,
      "Ġproject": 1690,
      "Ġ15": 1691,
      "Ġbegan": 1692,
      "Ġclose": 1693,
      "ĠMar": 1694,
      "ories": 1695,
      "Ġcity": 1696,
      "ians": 1697,
      "Ġdata": 1698,
      "ection": 1699,
      "arden": 1700,
      "icked": 1701,
      "ech": 1702,
      "icy": 1703,
      "Ġcomplet": 1704,
      "Ġcost": 1705,
      "wards": 1706,
      "Ġmag": 1707,
      "ration": 1708,
      "ior": 1709,
      "aper": 1710,
      "Ġfast": 1711,
      "Ġcurrent": 1712,
      "Ġgames": 1713,
      "ention": 1714,
      "ering": 1715,
      "Ġalready": 1716,
      "reed": 1717,
      "ored": 1718,
      "Ġview": 1719,
      "gin": 1720,
      "Ġevent": 1721,
      "Ġmajor": 1722,
      "ĠAfter": 1723,
      "aces": 1724,
      "ĠPl": 1725,
      "Ġline": 1726,
      "Ġpain": 1727,
      "Ġanimals": 1728,
      "Ġfire": 1729,
      "Yes": 1730,
      "Ġ&": 1731,
      "ony": 1732,
      "Ġpolice": 1733,
      "Ġsug": 1734,
      "Ġeveryone": 1735,
      "Ġothers": 1736,
      "atic": 1737,
      "Ġenjoy": 1738,
      "Ġclean": 1739,
      "aster": 1740,
      "iec": 1741,
      "Ġwomen": 1742,
      "Ġmen": 1743,
      "ĠDe": 1744,
      "ached": 1745,
      "Ġpict": 1746,
      "Ġeconom": 1747,
      "Ġmess": 1748,
      "Ġtoday": 1749,
      "Ġyoung": 1750,
      "Ġsuccess": 1751,
      "Ġvide": 1752,
      "ample": 1753,
      "Ġexpect": 1754,
      "alf": 1755,
      "Ġmakes": 1756,
      "ĠGr": 1757,
      "iam": 1758,
      "Ġcreat": 1759,
      "Ġdoll": 1760,
      "Ġpot": 1761,
      "ocr": 1762,
      "Ġoften": 1763,
      "Ġmeet": 1764,
      "Ġcharac": 1765,
      "Ġtri": 1766,
      "ases": 1767,
      "Ġrese": 1768,
      "Ġfight": 1769,
      "ium": 1770,
      "St": 1771,
      "Ġworking": 1772,
      "sh": 1773,
      "Ġsever": 1774,
      "Ġclos": 1775,
      "Ġgetting": 1776,
      "Ġaff": 1777,
      "Ġstop": 1778,
      "arr": 1779,
      "Ġsky": 1780,
      "ĠPr": 1781,
      "Ġlots": 1782,
      "Ġacross": 1783,
      "uthor": 1784,
      "Ġbecome": 1785,
      "Ġbehind": 1786,
      "gle": 1787,
      "Ġcourse": 1788,
      "ended": 1789,
      "ĠComm": 1790,
      "Ġrele": 1791,
      "uary": 1792,
      "ĠOr": 1793,
      "work": 1794,
      "ted": 1795,
      "__": 1796,
      "Ġearly": 1797,
      "Ġben": 1798,
      "Ġkept": 1799,
      "inc": 1800,
      "oon": 1801,
      "ĠCon": 1802,
      "Ġcut": 1803,
      "une": 1804,
      "Ġorder": 1805,
      "Ġclaim": 1806,
      "Ġfur": 1807,
      "Ġgarden": 1808,
      "Ġmarket": 1809,
      "ying": 1810,
      "ĠWhat": 1811,
      "Ġsqu": 1812,
      "ption": 1813,
      "Ġfly": 1814,
      "Ġpick": 1815,
      "ape": 1816,
      "ising": 1817,
      "Ġseveral": 1818,
      "ball": 1819,
      "Ġcoming": 1820,
      "ours": 1821,
      "Ġeng": 1822,
      "most": 1823,
      "Ġsong": 1824,
      "No": 1825,
      "Ġste": 1826,
      "Ġanything": 1827,
      "Ġask": 1828,
      "ified": 1829,
      "Ġhimself": 1830,
      "ĠFl": 1831,
      "Ġlived": 1832,
      "acy": 1833,
      "Ġmanag": 1834,
      "Ġmusic": 1835,
      "ru": 1836,
      "Ġhands": 1837,
      "Ġwond": 1838,
      "Ġdoor": 1839,
      "Ġtimes": 1840,
      "ality": 1841,
      "Ġorig": 1842,
      "ones": 1843,
      "Ġfilm": 1844,
      "ĠCol": 1845,
      "ges": 1846,
      "Tom": 1847,
      "ĠMia": 1848,
      "ison": 1849,
      "Ġstore": 1850,
      "Ġ11": 1851,
      "ĠMr": 1852,
      "Ġ/": 1853,
      "Ġofficial": 1854,
      "Ġdoesn": 1855,
      "Ġleast": 1856,
      "Ġhig": 1857,
      "Ġopened": 1858,
      "aign": 1859,
      "ived": 1860,
      "Ġintern": 1861,
      "ĠSe": 1862,
      "ĠDo": 1863,
      "ware": 1864,
      "ror": 1865,
      "Ġfive": 1866,
      "aps": 1867,
      "ghed": 1868,
      "Ġquickly": 1869,
      "Ġappear": 1870,
      "que": 1871,
      "raft": 1872,
      "Ġocc": 1873,
      "ailable": 1874,
      "ither": 1875,
      "Ġshort": 1876,
      "Ġcry": 1877,
      "Ġtrying": 1878,
      "Ġfall": 1879,
      "Åĵ": 1880,
      "âĢ¦": 1881,
      "Ġtax": 1882,
      "Ġequ": 1883,
      "aken": 1884,
      "Ġlaughed": 1885,
      "If": 1886,
      "Ġknown": 1887,
      "reet": 1888,
      "Ġfavor": 1889,
      "Ġla": 1890,
      "cl": 1891,
      "ĠNo": 1892,
      "Ġant": 1893,
      "aced": 1894,
      "rave": 1895,
      "Ġcrit": 1896,
      "iced": 1897,
      "af": 1898,
      "Ġsomeone": 1899,
      "Ġthanked": 1900,
      "where": 1901,
      "sel": 1902,
      "Ġpress": 1903,
      "50": 1904,
      "urity": 1905,
      "Ġpresident": 1906,
      "Ġnod": 1907,
      "19": 1908,
      "Ġpiec": 1909,
      "struct": 1910,
      "Ġ--": 1911,
      "ĠPres": 1912,
      "ober": 1913,
      "Ġwithin": 1914,
      "Ġparent": 1915,
      "ending": 1916,
      "irc": 1917,
      "Ġparty": 1918,
      "Ġloud": 1919,
      "eral": 1920,
      "Ġbelieve": 1921,
      "Ġheld": 1922,
      "Ġra": 1923,
      "Ġelse": 1924,
      "kay": 1925,
      "icle": 1926,
      "Ġdeal": 1927,
      "Ġbed": 1928,
      "ization": 1929,
      "lo": 1930,
      "Ġrunning": 1931,
      "Ġlost": 1932,
      "unch": 1933,
      "Ġhuman": 1934,
      "Ġmembers": 1935,
      "Ġsoft": 1936,
      "iol": 1937,
      "ĠMc": 1938,
      "And": 1939,
      "Ġeyes": 1940,
      "Ġfeeling": 1941,
      "ĠEuro": 1942,
      "oint": 1943,
      "Ġwalked": 1944,
      "Ġhurt": 1945,
      "urs": 1946,
      "Ġcampaign": 1947,
      "Let": 1948,
      "ĠYork": 1949,
      "ded": 1950,
      "itive": 1951,
      "Ġneeded": 1952,
      "ĠStates": 1953,
      "Ġactually": 1954,
      "She": 1955,
      "Ġtreat": 1956,
      "Ġfund": 1957,
      "Ġpract": 1958,
      "Ġvers": 1959,
      "Ġmid": 1960,
      "Ġbar": 1961,
      "Ġcontrol": 1962,
      "Ġdeb": 1963,
      "ĠSara": 1964,
      "aff": 1965,
      "An": 1966,
      "uture": 1967,
      "illy": 1968,
      "Ġri": 1969,
      "Ġprop": 1970,
      "Ġbreak": 1971,
      "ole": 1972,
      "uce": 1973,
      "Ġformer": 1974,
      "ĠSy": 1975,
      "Ġonce": 1976,
      "Ġblack": 1977,
      "wh": 1978,
      "por": 1979,
      "utes": 1980,
      "Ġpresent": 1981,
      "pping": 1982,
      "ER": 1983,
      "Ġfield": 1984,
      "Ġfollowing": 1985,
      "orld": 1986,
      "Ġshowed": 1987,
      "Ġpull": 1988,
      "Ġavailable": 1989,
      "oci": 1990,
      "ortun": 1991,
      "Ġseries": 1992,
      "Ġlocal": 1993,
      "ĠÃ¢": 1994,
      "Ġdesc": 1995,
      "ĠOb": 1996,
      "ĠRuss": 1997,
      "ĠEm": 1998,
      "Ġfell": 1999,
      "Ġproblem": 2000,
      "Ġpolitical": 2001,
      "Ġcomes": 2002,
      "itions": 2003,
      "Ġangry": 2004,
      "Ġsuggest": 2005,
      "ĠEng": 2006,
      "ensive": 2007,
      "stit": 2008,
      "Ġcand": 2009,
      "ept": 2010,
      "ission": 2011,
      "Ġarea": 2012,
      "Ġactiv": 2013,
      "Ġappl": 2014,
      "itc": 2015,
      "Ġrock": 2016,
      "weet": 2017,
      "ĠChrist": 2018,
      "Ġinvol": 2019,
      "Ġ16": 2020,
      "Ġ30": 2021,
      "oor": 2022,
      "empt": 2023,
      "rel": 2024,
      "Ġexplore": 2025,
      "Ġvideo": 2026,
      "vices": 2027,
      "Ġadvent": 2028,
      "ustom": 2029,
      "Ġeverything": 2030,
      "Ġsocial": 2031,
      "ron": 2032,
      "read": 2033,
      "Ġmeans": 2034,
      "iron": 2035,
      "dle": 2036,
      "wer": 2037,
      "ances": 2038,
      "idence": 2039,
      "11": 2040,
      "'ll": 2041,
      "ential": 2042,
      "Ġnet": 2043,
      "though": 2044,
      "ĠTw": 2045,
      "uly": 2046,
      "ulation": 2047,
      "Ġworked": 2048,
      "Ġlearn": 2049,
      "ĠWith": 2050,
      "Ġgiven": 2051,
      "Ġcollect": 2052,
      "Ġele": 2053,
      "ĠEurope": 2054,
      "artment": 2055,
      "Ġquestion": 2056,
      "Ġlive": 2057,
      "ald": 2058,
      "ps": 2059,
      "Ġpossible": 2060,
      "Ġsal": 2061,
      "Ġmonths": 2062,
      "Ġamong": 2063,
      "Ġ;": 2064,
      "Ġwhite": 2065,
      "Ġarg": 2066,
      "iety": 2067,
      "not": 2068,
      "There": 2069,
      "year": 2070,
      "Ġhappened": 2071,
      "Ġcertain": 2072,
      "use": 2073,
      "Ġlisten": 2074,
      "ague": 2075,
      "Ġi": 2076,
      "rove": 2077,
      "Ġaccording": 2078,
      "iter": 2079,
      "Ġsour": 2080,
      "ument": 2081,
      "ination": 2082,
      "orts": 2083,
      "oring": 2084,
      "ene": 2085,
      "Ġwat": 2086,
      "Ġbased": 2087,
      "Ġexample": 2088,
      "Ġ17": 2089,
      "ĠAm": 2090,
      "ivid": 2091,
      "ĠRepublic": 2092,
      "ĠEx": 2093,
      "Ġlow": 2094,
      "Ġbring": 2095,
      "Ġyet": 2096,
      "Ġsat": 2097,
      "Ġexperience": 2098,
      "Ġplayers": 2099,
      "osp": 2100,
      "Ġca": 2101,
      "Ġflew": 2102,
      "Ġnon": 2103,
      "Ġbrave": 2104,
      "Ġarri": 2105,
      "ĠUniversity": 2106,
      "anger": 2107,
      "Ġvoice": 2108,
      "ĠCent": 2109,
      "ecut": 2110,
      "ucy": 2111,
      "ery": 2112,
      "for": 2113,
      "Ġdeep": 2114,
      "Ġsent": 2115,
      "ging": 2116,
      "Ġfuture": 2117,
      "Ġauthor": 2118,
      "ction": 2119,
      "fect": 2120,
      "Ġtaking": 2121,
      "Ġcond": 2122,
      "Ġalmost": 2123,
      "Ġaddition": 2124,
      "Ġkey": 2125,
      "30": 2126,
      "Ġwhether": 2127,
      "ograp": 2128,
      "ĠMan": 2129,
      "Ġdraw": 2130,
      "Ġmedia": 2131,
      "aught": 2132,
      "Ġcommunity": 2133,
      "oke": 2134,
      "ĠPresident": 2135,
      "Ġlim": 2136,
      "leep": 2137,
      "Ġwrong": 2138,
      "Ġnec": 2139,
      "Ġamaz": 2140,
      "Ġedit": 2141,
      "irt": 2142,
      "Ġwalking": 2143,
      "Ġmilit": 2144,
      "Ġcomplete": 2145,
      "...": 2146,
      "Ġpicked": 2147,
      "Ġbuy": 2148,
      "Ġvot": 2149,
      "bo": 2150,
      "Ġblue": 2151,
      "Ġnoise": 2152,
      "ĠBob": 2153,
      "Ġhalf": 2154,
      "Ġfail": 2155,
      "Ġmind": 2156,
      "more": 2157,
      "selves": 2158,
      "nes": 2159,
      "Ġstopped": 2160,
      "ĠDem": 2161,
      "Ġfront": 2162,
      "Ġsex": 2163,
      "ĠX": 2164,
      "Ġpar": 2165,
      "Ġcompet": 2166,
      "Ġlooks": 2167,
      "Ġtrad": 2168,
      "Ġslow": 2169,
      "vert": 2170,
      "uge": 2171,
      "Ġleav": 2172,
      "12": 2173,
      "lex": 2174,
      "ief": 2175,
      "iding": 2176,
      "Ġfoot": 2177,
      "Ġpriv": 2178,
      "ands": 2179,
      "Ġhistory": 2180,
      "Ġ]": 2181,
      "book": 2182,
      "verage": 2183,
      "Ġphot": 2184,
      "Ġcou": 2185,
      "Ġlikely": 2186,
      "After": 2187,
      "of": 2188,
      "Ġindust": 2189,
      "Ġaccess": 2190,
      "Ġwasn": 2191,
      "Ġident": 2192,
      "Ġdeath": 2193,
      "Ġviol": 2194,
      "Ġhot": 2195,
      "Ġ14": 2196,
      "ĠState": 2197,
      "Ġans": 2198,
      "Ġproper": 2199,
      "\".": 2200,
      "gress": 2201,
      "Ġlate": 2202,
      "ĠMin": 2203,
      "Ġbody": 2204,
      "Ġreason": 2205,
      "Ġhelped": 2206,
      "erm": 2207,
      "Ġemploy": 2208,
      "ability": 2209,
      "ĠTo": 2210,
      "Ġtaken": 2211,
      "Ġsix": 2212,
      "ĠBrit": 2213,
      "Ġfeat": 2214,
      "ills": 2215,
      "Ġadded": 2216,
      "key": 2217,
      "Ġhit": 2218,
      "Ġfoc": 2219,
      "Ġcook": 2220,
      "ators": 2221,
      "Ġsingle": 2222,
      "ilt": 2223,
      "Ġready": 2224,
      "Ġinvestig": 2225,
      "Ġmoment": 2226,
      "ift": 2227,
      "Ġstick": 2228,
      "Ġwarm": 2229,
      "Ġaccount": 2230,
      "ashing": 2231,
      "erman": 2232,
      "Ġnothing": 2233,
      "tt": 2234,
      "Ġprob": 2235,
      ".,": 2236,
      "Ġparents": 2237,
      "ĠAust": 2238,
      "ĠWar": 2239,
      "ilar": 2240,
      "Ġpaper": 2241,
      "resent": 2242,
      "Ġservice": 2243,
      "----": 2244,
      "ises": 2245,
      "âĦ": 2246,
      "ummy": 2247,
      "Ġ13": 2248,
      "par": 2249,
      "Ġreached": 2250,
      "Ġbrother": 2251,
      "Ġmother": 2252,
      "rought": 2253,
      "Ġprotect": 2254,
      "back": 2255,
      "ĠDon": 2256,
      "âĦ¢": 2257,
      "Ġclimb": 2258,
      "ler": 2259,
      "ĠNow": 2260,
      "aid": 2261,
      "Ġaut": 2262,
      "Ġreported": 2263,
      "hy": 2264,
      "Ġclear": 2265,
      "Ġ198": 2266,
      "âĢĵ": 2267,
      "Ġkids": 2268,
      "Ġindivid": 2269,
      "ĠWorld": 2270,
      "ĠNorth": 2271,
      "itch": 2272,
      "ication": 2273,
      "avy": 2274,
      "ĠPol": 2275,
      "icult": 2276,
      "Ġsum": 2277,
      "erence": 2278,
      "ĠHowever": 2279,
      "itter": 2280,
      "room": 2281,
      "ĠÂ": 2282,
      "Ġwhole": 2283,
      "inally": 2284,
      "Ġrul": 2285,
      "Tim": 2286,
      "'ve": 2287,
      "rest": 2288,
      "allen": 2289,
      "ĠHouse": 2290,
      "mb": 2291,
      "Ġcomb": 2292,
      "Ġer": 2293,
      "Ġfish": 2294,
      "Ġep": 2295,
      "ails": 2296,
      "Ġforest": 2297,
      "Ġshiny": 2298,
      "Ġhappen": 2299,
      "Ġbuilding": 2300,
      "Ġfix": 2301,
      "Ġcustom": 2302,
      "ĠFe": 2303,
      "sy": 2304,
      "Ġmeas": 2305,
      "ele": 2306,
      "Ġfair": 2307,
      "Ġdescrib": 2308,
      "ĠJan": 2309,
      "Ġtot": 2310,
      "Ġwrote": 2311,
      "Ġleave": 2312,
      "Ġtouch": 2313,
      "ederal": 2314,
      "Ġsmile": 2315,
      "Ġturned": 2316,
      "Ġstep": 2317,
      "ĠGe": 2318,
      "Ġhours": 2319,
      "Ġsaying": 2320,
      "Ġenc": 2321,
      "hers": 2322,
      "Ġcirc": 2323,
      "val": 2324,
      "Ġappe": 2325,
      "Ġwords": 2326,
      "ĠLet": 2327,
      "Ġwait": 2328,
      "Ġliving": 2329,
      "Ġconn": 2330,
      "Ġvisit": 2331,
      "Ġpubl": 2332,
      "Ġfavorite": 2333,
      "ĠAmerica": 2334,
      "Ġdress": 2335,
      "Ġperfect": 2336,
      "Ġprevious": 2337,
      "Ġhope": 2338,
      "Ġnational": 2339,
      "AT": 2340,
      "ule": 2341,
      "Ġself": 2342,
      "ĠDec": 2343,
      "Ġreleased": 2344,
      "Ġfurther": 2345,
      "Ġanal": 2346,
      "Ġheart": 2347,
      "Ġstudy": 2348,
      "over": 2349,
      "Ġdiscuss": 2350,
      "ai": 2351,
      "asing": 2352,
      "itting": 2353,
      "Ġago": 2354,
      "Ġlonger": 2355,
      "Ġmult": 2356,
      "IN": 2357,
      "Ġcool": 2358,
      "Ġcontinued": 2359,
      "âĤ¬âĦ¢": 2360,
      "Ġthird": 2361,
      "Ġ2016": 2362,
      "Ġissue": 2363,
      "Ġcharacter": 2364,
      "Ġjour": 2365,
      "Ġhun": 2366,
      "Ġnoticed": 2367,
      "Ġprovide": 2368,
      "Ġdark": 2369,
      "play": 2370,
      "go": 2371,
      "Ġentire": 2372,
      "Ġpack": 2373,
      "ĠDad": 2374,
      "ences": 2375,
      "ĠObama": 2376,
      "ĠEd": 2377,
      "Ġhigher": 2378,
      "umb": 2379,
      "Ġhear": 2380,
      "isk": 2381,
      "Ġcast": 2382,
      "ecially": 2383,
      "Ġsuper": 2384,
      "ille": 2385,
      "ĠCanad": 2386,
      "Ġmorning": 2387,
      "Ġvict": 2388,
      "Ġtrack": 2389,
      "Ġhowever": 2390,
      "15": 2391,
      "Ġcreate": 2392,
      "Ġrain": 2393,
      "Ġconsider": 2394,
      "Ġban": 2395,
      "Ġfig": 2396,
      "Ġnodded": 2397,
      "Ġrad": 2398,
      "attle": 2399,
      "Ġgrand": 2400,
      "Ġdue": 2401,
      "lish": 2402,
      "Ġtown": 2403,
      "Ã©": 2404,
      "Ġtable": 2405,
      "ĠSu": 2406,
      "ana": 2407,
      "itten": 2408,
      "aged": 2409,
      "Ġmatter": 2410,
      "Ġgun": 2411,
      "Ġdest": 2412,
      "ĠCal": 2413,
      "Ġyell": 2414,
      "Ġcloser": 2415,
      "ĠNational": 2416,
      "off": 2417,
      "ĠNe": 2418,
      "Ġ2015": 2419,
      "Ġinstead": 2420,
      "ĠCity": 2421,
      "Ġbrought": 2422,
      "ocks": 2423,
      "ĠLucy": 2424,
      "Ġlaugh": 2425,
      "iod": 2426,
      "Ġ#": 2427,
      "Ġcult": 2428,
      "Ġdam": 2429,
      "Ġproduc": 2430,
      "Ġbooks": 2431,
      "ĠCar": 2432,
      "Ġattempt": 2433,
      "cle": 2434,
      "Ġplayer": 2435,
      "ites": 2436,
      "ĠSec": 2437,
      "Ġwants": 2438,
      "viron": 2439,
      "At": 2440,
      "minist": 2441,
      "ĠSouth": 2442,
      "Ġinfl": 2443,
      "Ġpoints": 2444,
      "Ġisn": 2445,
      "Ġfac": 2446,
      "ĠIm": 2447,
      "Ġfollowed": 2448,
      "Ġrather": 2449,
      "ĠGu": 2450,
      "ĠAf": 2451,
      "ann": 2452,
      "Ġeither": 2453,
      "kes": 2454,
      "Ġlab": 2455,
      "Ġwatched": 2456,
      "Ġteac": 2457,
      "olly": 2458,
      "ĠJust": 2459,
      "Ġbegin": 2460,
      "Ġesp": 2461,
      "arth": 2462,
      "Ġwoman": 2463,
      "ese": 2464,
      "Ġtem": 2465,
      "zy": 2466,
      "Ġshout": 2467,
      "Ġfinal": 2468,
      "Ġresearch": 2469,
      "Ġ2014": 2470,
      "ĠDr": 2471,
      "ĠSen": 2472,
      "Ġstudents": 2473,
      "ring": 2474,
      "head": 2475,
      "Ġrecent": 2476,
      "ĠDemocr": 2477,
      "Ġrace": 2478,
      "ique": 2479,
      "ming": 2480,
      "inks": 2481,
      "aby": 2482,
      "Ġinclude": 2483,
      "Ġstri": 2484,
      "Ġspace": 2485,
      "Ġwonder": 2486,
      "esc": 2487,
      "aul": 2488,
      "Ġopt": 2489,
      "Ġneeds": 2490,
      "ĠMy": 2491,
      "ches": 2492,
      "yle": 2493,
      "Thank": 2494,
      "Ġcourt": 2495,
      "Ġcompl": 2496,
      "lement": 2497,
      "ĠWill": 2498,
      "Ġmot": 2499,
      "Ġroad": 2500,
      "Ġtruck": 2501,
      "Ġdifficult": 2502,
      "bor": 2503,
      "Ġcoun": 2504,
      "Ġabove": 2505,
      "arah": 2506,
      "Ġoffice": 2507,
      "Ġsimilar": 2508,
      "Ġcompan": 2509,
      "omm": 2510,
      "Ġ100": 2511,
      "ĠBar": 2512,
      "Ben": 2513,
      "For": 2514,
      "Ġgreen": 2515,
      "Ġrelations": 2516,
      "Ġdevelopment": 2517,
      "Ġcal": 2518,
      "Ġprofess": 2519,
      "ĠDep": 2520,
      "arget": 2521,
      "Ġsometimes": 2522,
      "ww": 2523,
      "Ġbenef": 2524,
      "ask": 2525,
      "tain": 2526,
      "ON": 2527,
      "Ġ25": 2528,
      "olution": 2529,
      "Ġsignific": 2530,
      "ients": 2531,
      "Ġener": 2532,
      "Ġforg": 2533,
      "iles": 2534,
      "ĠGo": 2535,
      "ogn": 2536,
      "Ġchallen": 2537,
      "On": 2538,
      "Ġrole": 2539,
      "Ġbright": 2540,
      "ify": 2541,
      "ze": 2542,
      "itted": 2543,
      "Ġrespect": 2544,
      "eng": 2545,
      "ĠGerman": 2546,
      "Ġmilitary": 2547,
      "Ġ2012": 2548,
      "ively": 2549,
      "Ġminutes": 2550,
      "Ġap": 2551,
      "Ġfinally": 2552,
      "augh": 2553,
      "Ġflowers": 2554,
      "idge": 2555,
      "rog": 2556,
      "ĠDav": 2557,
      "ĠApp": 2558,
      "Ġinit": 2559,
      "ply": 2560,
      "Ġ|": 2561,
      "come": 2562,
      "ken": 2563,
      "Ġreplied": 2564,
      "Ġcop": 2565,
      "ĠOct": 2566,
      "Ġposition": 2567,
      "Ġreview": 2568,
      "ray": 2569,
      "Ġ2013": 2570,
      "Ġsold": 2571,
      "Ġmass": 2572,
      "Ġcars": 2573,
      "ĠCo": 2574,
      "Ġcolor": 2575,
      "Ġexist": 2576,
      "rael": 2577,
      "ffic": 2578,
      "//": 2579,
      "Ġtrue": 2580,
      "Don": 2581,
      "nal": 2582,
      "ounced": 2583,
      "amer": 2584,
      "ude": 2585,
      "hel": 2586,
      "enn": 2587,
      "ining": 2588,
      "uit": 2589,
      "Ġsite": 2590,
      "ĠAug": 2591,
      "Ġthreat": 2592,
      "Ġespecially": 2593,
      "Ġokay": 2594,
      "Ġreceived": 2595,
      "eter": 2596,
      "ĠAb": 2597,
      "Ġsecurity": 2598,
      "Ġforward": 2599,
      "ĠSept": 2600,
      "ĠMed": 2601,
      "Ġsand": 2602,
      "ĠIntern": 2603,
      "Ġshows": 2604,
      "Ġtakes": 2605,
      "iday": 2606,
      "urch": 2607,
      "uation": 2608,
      "Ġtyp": 2609,
      "Ġwall": 2610,
      "ĠAss": 2611,
      "Ġprobably": 2612,
      "reme": 2613,
      "Ġdoc": 2614,
      "eth": 2615,
      "RE": 2616,
      "Ġport": 2617,
      "Ġcommon": 2618,
      "Ġslide": 2619,
      "aur": 2620,
      "vironment": 2621,
      "Ġperiod": 2622,
      "16": 2623,
      "ibility": 2624,
      "Ġdecision": 2625,
      "isc": 2626,
      "ĠJoe": 2627,
      "Ġfloor": 2628,
      "angu": 2629,
      "Ġgone": 2630,
      "Ġthemselves": 2631,
      "Ġrelease": 2632,
      "reg": 2633,
      "Ġrepresent": 2634,
      "Ġanyone": 2635,
      "Ġeasy": 2636,
      "ĠJune": 2637,
      "ights": 2638,
      "Ġpolicy": 2639,
      "Ġonline": 2640,
      "Ġ197": 2641,
      "Ġrespons": 2642,
      "Ġled": 2643,
      "Ġissues": 2644,
      "agon": 2645,
      "Ġtowards": 2646,
      "ĠThese": 2647,
      "ham": 2648,
      "ĠBy": 2649,
      "Ġitself": 2650,
      "ĠSuddenly": 2651,
      "Ġrabb": 2652,
      "Ġaccept": 2653,
      "Ġsweet": 2654,
      "Ġsecret": 2655,
      "ĠSer": 2656,
      "ĠGod": 2657,
      "Ġsleep": 2658,
      "ili": 2659,
      "Ġworks": 2660,
      "ĠMarch": 2661,
      "ades": 2662,
      "Ġbott": 2663,
      "ashington": 2664,
      "14": 2665,
      "epend": 2666,
      "ault": 2667,
      "itchen": 2668,
      "Ġamount": 2669,
      "Ġservices": 2670,
      "ran": 2671,
      "Ġmov": 2672,
      "Ġversion": 2673,
      "Ġdou": 2674,
      "ĠWest": 2675,
      "AN": 2676,
      "Can": 2677,
      "Ġaction": 2678,
      "ĠPart": 2679,
      "ila": 2680,
      "Ġbelow": 2681,
      "Ġplease": 2682,
      "pro": 2683,
      "yn": 2684,
      "Ġoriginal": 2685,
      "Ġtit": 2686,
      "Ġround": 2687,
      "pril": 2688,
      "Ġyes": 2689,
      "Ġcatch": 2690,
      "Ġwood": 2691,
      "Suddenly": 2692,
      "Ġdiv": 2693,
      "Ġcompanies": 2694,
      "Ġpicture": 2695,
      "Look": 2696,
      "Ġstar": 2697,
      "IS": 2698,
      "Ġhon": 2699,
      "Ġalone": 2700,
      "Ġvol": 2701,
      "Ġenergy": 2702,
      "Ġwide": 2703,
      "Ġgeneral": 2704,
      "Ġspecific": 2705,
      "ĠDa": 2706,
      "Ġsignificant": 2707,
      "Ġtast": 2708,
      "Ġrights": 2709,
      "Ġpopular": 2710,
      "set": 2711,
      "Ġanymore": 2712,
      "Ġwebs": 2713,
      "Ġice": 2714,
      "Ġ24": 2715,
      "Ġcontinue": 2716,
      "13": 2717,
      ".)": 2718,
      "Ġneigh": 2719,
      "Ġship": 2720,
      "bye": 2721,
      "Ġadm": 2722,
      "Ġtarget": 2723,
      "Ġsus": 2724,
      "ĠSm": 2725,
      "Ġsees": 2726,
      "cy": 2727,
      "aterial": 2728,
      "Ġobject": 2729,
      "Ġ50": 2730,
      "Jo": 2731,
      "ĠSome": 2732,
      "body": 2733,
      "ĠEn": 2734,
      "Ġaddress": 2735,
      "arlier": 2736,
      "Ġvalue": 2737,
      "ribut": 2738,
      "How": 2739,
      "Ġdi": 2740,
      "Ġgen": 2741,
      "://": 2742,
      "ĠAustral": 2743,
      "ĠHar": 2744,
      "Ġcannot": 2745,
      "oes": 2746,
      "Ġquite": 2747,
      "ĠRes": 2748,
      "Ġmatch": 2749,
      "Ġimm": 2750,
      "iant": 2751,
      "Ġhom": 2752,
      "ĠSpot": 2753,
      "fer": 2754,
      "ĠPe": 2755,
      "Ġsell": 2756,
      "Ġhair": 2757,
      "inton": 2758,
      "medi": 2759,
      "ĠJuly": 2760,
      "hern": 2761,
      "Ġeduc": 2762,
      "ivil": 2763,
      "Ġfinished": 2764,
      "ĠIsrael": 2765,
      "Ġleaders": 2766,
      "Ġworry": 2767,
      "Ġboat": 2768,
      "ĠMe": 2769,
      "Ġroll": 2770,
      "Ġseems": 2771,
      "ĠNot": 2772,
      "ĠWashington": 2773,
      "Ġneg": 2774,
      "time": 2775,
      "Ġweeks": 2776,
      "Ġdanger": 2777,
      "Ch": 2778,
      "Ġmat": 2779,
      "Ġphys": 2780,
      "lege": 2781,
      "Ġdom": 2782,
      "obal": 2783,
      "Ġbutter": 2784,
      "Ġcurious": 2785,
      "Ġcontent": 2786,
      "fort": 2787,
      "Ġindustry": 2788,
      "uel": 2789,
      "Ġinj": 2790,
      "Ġopportun": 2791,
      "Ġkitchen": 2792,
      "Ġbag": 2793,
      "icro": 2794,
      "ĠApril": 2795,
      "Ġshoot": 2796,
      "Ġfinanc": 2797,
      "Ġpersonal": 2798,
      "Her": 2799,
      "Ġcheck": 2800,
      "ĠMus": 2801,
      "Ġquestions": 2802,
      "Ġrealized": 2803,
      "Ġdin": 2804,
      "Ġaud": 2805,
      "Ġcreated": 2806,
      "**": 2807,
      "Ġstates": 2808,
      "Ġhost": 2809,
      "Ġgoal": 2810,
      "unny": 2811,
      "Al": 2812,
      ".@": 2813,
      "Ġsimply": 2814,
      "Ġcold": 2815,
      "ental": 2816,
      "Ġpu": 2817,
      "ĠEl": 2818,
      "ung": 2819,
      "Ġ2011": 2820,
      "Ġbirds": 2821,
      "mber": 2822,
      "ĠSte": 2823,
      "like": 2824,
      "apan": 2825,
      "AR": 2826,
      "ume": 2827,
      "Ġagreed": 2828,
      "Ġhor": 2829,
      "Ġhuge": 2830,
      "ĠMich": 2831,
      "Ġ@.@": 2832,
      "ĠWhile": 2833,
      "Ġjud": 2834,
      "Ġcomput": 2835,
      "Ġmoved": 2836,
      "ĠMommy": 2837,
      "load": 2838,
      "Ġphone": 2839,
      "18": 2840,
      "Ġcountries": 2841,
      "ilities": 2842,
      "Ġtool": 2843,
      "Ġserious": 2844,
      "Ġband": 2845,
      "ateg": 2846,
      "Ġabs": 2847,
      "Ġrabbit": 2848,
      "Ġage": 2849,
      "Ġbuilt": 2850,
      "rit": 2851,
      "ĠSue": 2852,
      "abbed": 2853,
      "ications": 2854,
      "Ġadventure": 2855,
      "Ġdig": 2856,
      "Ġbow": 2857,
      "Ad": 2858,
      "Ġsurprise": 2859,
      "17": 2860,
      "Ġmix": 2861,
      "Ġcake": 2862,
      "Ġgrass": 2863,
      "ĠSeptember": 2864,
      "Ġord": 2865,
      "ĠCount": 2866,
      "right": 2867,
      "Ġear": 2868,
      "Ġcred": 2869,
      "Ġgoes": 2870,
      "Ġgroups": 2871,
      "Ġinterview": 2872,
      "ularly": 2873,
      "Ġdoct": 2874,
      "pper": 2875,
      "Ġarrived": 2876,
      "ĠGeor": 2877,
      "Ġtotal": 2878,
      "kn": 2879,
      "AS": 2880,
      "ovember": 2881,
      "Ġbill": 2882,
      "Ġpus": 2883,
      "ccording": 2884,
      "istic": 2885,
      "bum": 2886,
      "Ġsearch": 2887,
      "Ġways": 2888,
      "ground": 2889,
      "Ġgoodbye": 2890,
      "Ġglad": 2891,
      "ĠAugust": 2892,
      "Ġfocus": 2893,
      "Ġfederal": 2894,
      "Ġ196": 2895,
      "Ġadminist": 2896,
      "irm": 2897,
      "Ġremember": 2898,
      "Ġoffer": 2899,
      "Ġcoll": 2900,
      "Ġ2010": 2901,
      "Ġclub": 2902,
      "Ġintro": 2903,
      "Ġchanges": 2904,
      "ners": 2905,
      "Ġspent": 2906,
      "Ġevidence": 2907,
      "BC": 2908,
      "Ġreve": 2909,
      "Ġreach": 2910,
      "lim": 2911,
      "ript": 2912,
      "ev": 2913,
      "Ġstories": 2914,
      "Ġdead": 2915,
      "cast": 2916,
      "Ġmach": 2917,
      "zz": 2918,
      "icious": 2919,
      "Ġestab": 2920,
      "Ġselect": 2921,
      "Ġtele": 2922,
      "Ġmaterial": 2923,
      "oom": 2924,
      "ĠSarah": 2925,
      "ected": 2926,
      "Ġhy": 2927,
      "Ġtravel": 2928,
      "Ġfather": 2929,
      "Ġdrug": 2930,
      "lt": 2931,
      "fully": 2932,
      "ishing": 2933,
      "atur": 2934,
      "Ġpers": 2935,
      "Ġsense": 2936,
      "Ġprim": 2937,
      "ĠTe": 2938,
      "Ġlangu": 2939,
      ",@": 2940,
      "Ġ@,@": 2941,
      "oose": 2942,
      "ires": 2943,
      "isy": 2944,
      "ĠChina": 2945,
      "Ġjumped": 2946,
      "oogle": 2947,
      "Ġdisapp": 2948,
      "Ġresults": 2949,
      "arter": 2950,
      "ĠOctober": 2951,
      "Ġruns": 2952,
      "Ġlog": 2953,
      "ĠTV": 2954,
      "ival": 2955,
      "Ġdream": 2956,
      "anced": 2957,
      "Ġincluded": 2958,
      "Ġproblems": 2959,
      "Ġstaff": 2960,
      "ino": 2961,
      "ĠNovember": 2962,
      "ĠJanuary": 2963,
      "ĠBritish": 2964,
      "Ġofficials": 2965,
      "Ġgrabbed": 2966,
      "ĠJapan": 2967,
      "Ġepis": 2968,
      "Ġobs": 2969,
      "lus": 2970,
      "Ġrev": 2971,
      "Ġstatement": 2972,
      "atural": 2973,
      "Ġrelationship": 2974,
      "irth": 2975,
      "Ġdecl": 2976,
      "Ġcross": 2977,
      "Ġenvironment": 2978,
      "ĠJane": 2979,
      "ĠClinton": 2980,
      "Ġcontract": 2981,
      "Ġmeth": 2982,
      "king": 2983,
      "Ġwindow": 2984,
      "ĠSw": 2985,
      "Ġcarry": 2986,
      "hood": 2987,
      "ĠRed": 2988,
      "sp": 2989,
      "Ġexpress": 2990,
      "Ġbase": 2991,
      "Ġlegal": 2992,
      "oid": 2993,
      "Ġpiece": 2994,
      "ES": 2995,
      "Ġalle": 2996,
      "Ġ2017": 2997,
      "Ġblock": 2998,
      "arc": 2999,
      "ender": 3000,
      "iber": 3001,
      "Ġcell": 3002,
      "Ġcard": 3003,
      "Ġpred": 3004,
      "Ġtrees": 3005,
      "Ġspeak": 3006,
      "Ġengine": 3007,
      "Ġperformance": 3008,
      "Ġimag": 3009,
      "Ġkill": 3010,
      "25": 3011,
      "Ġcover": 3012,
      "Ġwouldn": 3013,
      "Ġbaby": 3014,
      "Ġnecess": 3015,
      "Ġincrease": 3016,
      "ĠAct": 3017,
      "Ġrecogn": 3018,
      "ĠKing": 3019,
      "Ġnorm": 3020,
      "ope": 3021,
      "Ġet": 3022,
      "acebook": 3023,
      "Ġrecently": 3024,
      "Ġbecom": 3025,
      "Ġfunny": 3026,
      "onse": 3027,
      "Ġcapt": 3028,
      "Ġmodel": 3029,
      "Ġearlier": 3030,
      "action": 3031,
      "Ġherself": 3032,
      "ĠWhite": 3033,
      "Ġpotential": 3034,
      "iction": 3035,
      "ops": 3036,
      "Ġexam": 3037,
      "ples": 3038,
      "Ġpage": 3039,
      "put": 3040,
      "Ġamazing": 3041,
      "Ġlay": 3042,
      "Ġcandid": 3043,
      "elebr": 3044,
      "Ġalbum": 3045,
      "Ġlady": 3046,
      "lam": 3047,
      "asons": 3048,
      "anch": 3049,
      "Ġtechnology": 3050,
      "ĠCong": 3051,
      "Ġspl": 3052,
      "Ġrisk": 3053,
      "Ġshot": 3054,
      "ĠPark": 3055,
      "Ġsurprised": 3056,
      "ĠMark": 3057,
      "Ġpen": 3058,
      "Ġsmart": 3059,
      "Ġrequest": 3060,
      "Ġareas": 3061,
      "Ġrelig": 3062,
      "Ġforce": 3063,
      "Ġblocks": 3064,
      "Ġbroken": 3065,
      "Ġannounced": 3066,
      "Ġoil": 3067,
      "ĠNews": 3068,
      "Ġimmedi": 3069,
      "chie": 3070,
      "ĠPer": 3071,
      "Ġspot": 3072,
      "Ġtype": 3073,
      "Ġcomment": 3074,
      "Ġboard": 3075,
      "Ġinflu": 3076,
      "ĠDepartment": 3077,
      "Ġcareer": 3078,
      "ĠEveryone": 3079,
      "Ġbillion": 3080,
      "de": 3081,
      "ĠJim": 3082,
      "Ġthank": 3083,
      "Ġimpact": 3084,
      "Ġinvolved": 3085,
      "Ġassoci": 3086,
      "Ġheavy": 3087,
      "Ġprice": 3088,
      "atives": 3089,
      "Ġtight": 3090,
      "Ġarticle": 3091,
      "cil": 3092,
      "Ġsend": 3093,
      "Ġeconomic": 3094,
      "Ġmember": 3095,
      "Ġ40": 3096,
      "Ġrate": 3097,
      "Ġpublished": 3098,
      "Ġinteresting": 3099,
      "iple": 3100,
      "ceed": 3101,
      "emb": 3102,
      "Ġrequire": 3103,
      "Ġpet": 3104,
      "Ġparticip": 3105,
      "Ġupd": 3106,
      "Ġsubject": 3107,
      "ĠDecember": 3108,
      "aughter": 3109,
      "ĠCor": 3110,
      "ael": 3111,
      "Ġlikes": 3112,
      "board": 3113,
      "Ġproduction": 3114,
      "Ġwebsite": 3115,
      "Ġtal": 3116,
      "Ġexpected": 3117,
      "Ġcy": 3118,
      "ij": 3119,
      "aled": 3120,
      "Ġstruct": 3121,
      "Ġimprove": 3122,
      "Ġprivate": 3123,
      "izing": 3124,
      "Ġpath": 3125,
      "airs": 3126,
      "Ġsuff": 3127,
      "Ġpros": 3128,
      "Ġelection": 3129,
      "ĠCour": 3130,
      "Ġtired": 3131,
      "Ġtrain": 3132,
      "Ġbroad": 3133,
      "unt": 3134,
      "Ġate": 3135,
      "Ġsnow": 3136,
      "Ġworth": 3137,
      "ittee": 3138,
      "Ġfear": 3139,
      "rict": 3140,
      "Ġnation": 3141,
      "Ġden": 3142,
      "Ġconsum": 3143,
      "stant": 3144,
      "Ġallowed": 3145,
      "light": 3146,
      "Ġsepar": 3147,
      "Ġarm": 3148,
      "Ġsett": 3149,
      "Ġur": 3150,
      "Ġmeeting": 3151,
      "Ġsize": 3152,
      "ellig": 3153,
      "Ġshouted": 3154,
      "Ġexact": 3155,
      "Ġ21": 3156,
      "Ġvarious": 3157,
      "ky": 3158,
      "Ġshared": 3159,
      "ĠPaul": 3160,
      "Ġevents": 3161,
      "Ġprep": 3162,
      "Ġswim": 3163,
      "omp": 3164,
      "ĠQu": 3165,
      "Ġwel": 3166,
      "ees": 3167,
      "Ġ...": 3168,
      "Ġleaves": 3169,
      "Ġtext": 3170,
      "Ġson": 3171,
      "haps": 3172,
      "apt": 3173,
      "Ġfilled": 3174,
      "ello": 3175,
      "ological": 3176,
      "Ġlives": 3177,
      "Ġyellow": 3178,
      "Ġenjoyed": 3179,
      "ĠCont": 3180,
      "rect": 3181,
      "Ġgets": 3182,
      "Ġ22": 3183,
      "Ġaverage": 3184,
      "Ġanti": 3185,
      "Ġeight": 3186,
      "ugg": 3187,
      "Ġemer": 3188,
      "ety": 3189,
      "icated": 3190,
      "Ġanswer": 3191,
      "Ġtalking": 3192,
      "Ġmethod": 3193,
      "OR": 3194,
      "From": 3195,
      "Ġchance": 3196,
      "isl": 3197,
      "Ġinternational": 3198,
      "Ġhat": 3199,
      "Ġcelebr": 3200,
      "Ġmum": 3201,
      "ospital": 3202,
      "ek": 3203,
      "Ġcontact": 3204,
      "ĠGl": 3205,
      "Ġemb": 3206,
      "Ġdeterm": 3207,
      "ĠDavid": 3208,
      "ĠAg": 3209,
      "Ġvote": 3210,
      "Ġwrite": 3211,
      "Ġregard": 3212,
      "Ġmouse": 3213,
      "Ġfit": 3214,
      "Ġtrou": 3215,
      "idents": 3216,
      "Ġtall": 3217,
      "Ġsimple": 3218,
      "Ġnearly": 3219,
      "oph": 3220,
      "omb": 3221,
      "Ġlaws": 3222,
      "40": 3223,
      "ocked": 3224,
      "Ġscient": 3225,
      "ppy": 3226,
      "Ġclot": 3227,
      "Ġcode": 3228,
      "Ġill": 3229,
      "Ġloss": 3230,
      "'d": 3231,
      "Ġjoin": 3232,
      "iling": 3233,
      "sidered": 3234,
      "Ġpond": 3235,
      "ucky": 3236,
      "Ġfinancial": 3237,
      "Ġple": 3238,
      "face": 3239,
      "Ġnetwork": 3240,
      "osition": 3241,
      "Ġ+": 3242,
      "Ġcases": 3243,
      "____": 3244,
      "ĠAfric": 3245,
      "Ġhole": 3246,
      "estern": 3247,
      "Ġcarefully": 3248,
      "EN": 3249,
      "ables": 3250,
      "Ġterms": 3251,
      "ĠPal": 3252,
      "Ġindepend": 3253,
      "Ġfeatures": 3254,
      "||": 3255,
      "ubb": 3256,
      "ĠSan": 3257,
      "Ġbunny": 3258,
      "Ġdro": 3259,
      "Ġprevent": 3260,
      "Ġresponse": 3261,
      "Ġlack": 3262,
      "Ġexecut": 3263,
      "Ġwritten": 3264,
      "Ġkilled": 3265,
      "Ġnumbers": 3266,
      "Ġdrive": 3267,
      "ĠAng": 3268,
      "ĠTwitter": 3269,
      "Ġmodern": 3270,
      "Ġbug": 3271,
      "ĠCalif": 3272,
      "Ġens": 3273,
      "Ġ2008": 3274,
      "Ġwriting": 3275,
      "Ġconstruct": 3276,
      "ĠCr": 3277,
      "Ġmis": 3278,
      "Ġability": 3279,
      "Ġextra": 3280,
      "Ġdirector": 3281,
      "Ġ2009": 3282,
      "sequ": 3283,
      "Ġtradition": 3284,
      "Ġtraining": 3285,
      "Ġwonderful": 3286,
      "ĠPat": 3287,
      "Ġspeed": 3288,
      "imate": 3289,
      "Ġsud": 3290,
      "rem": 3291,
      "bruary": 3292,
      "Ġowner": 3293,
      "ondon": 3294,
      "Ġfriendly": 3295,
      "Ġfem": 3296,
      "Ġpan": 3297,
      "Ġemail": 3298,
      "alt": 3299,
      "Ġconsidered": 3300,
      "roll": 3301,
      "Ġgives": 3302,
      "To": 3303,
      "Ġyummy": 3304,
      "ĠSch": 3305,
      "ĠCongress": 3306,
      "Ġachie": 3307,
      "Ġbur": 3308,
      "Ġappeared": 3309,
      "Ġpictures": 3310,
      "Ġ23": 3311,
      "Ġrange": 3312,
      "Ġsource": 3313,
      "Ġswing": 3314,
      "rench": 3315,
      "Ġconcern": 3316,
      "ales": 3317,
      "atory": 3318,
      "ĠSund": 3319,
      "Ġfans": 3320,
      "ha": 3321,
      "Then": 3322,
      "Ġfarm": 3323,
      "eed": 3324,
      "Ġplans": 3325,
      "Ġgas": 3326,
      "Ġattention": 3327,
      "Ġsen": 3328,
      "Ġfre": 3329,
      "Ġveh": 3330,
      "Ġlesson": 3331,
      "Ġess": 3332,
      "Ġcivil": 3333,
      "Ġeventually": 3334,
      "Ġfeet": 3335,
      "Ġbirth": 3336,
      "Ġproducts": 3337,
      "Ġpoor": 3338,
      "Ġquality": 3339,
      "Ġrespond": 3340,
      "Ġbank": 3341,
      "Ġcouple": 3342,
      "bit": 3343,
      "Ġwhose": 3344,
      "che": 3345,
      "ĠDan": 3346,
      "itiz": 3347,
      "overed": 3348,
      "ĠCounty": 3349,
      "Ġlower": 3350,
      "Ġconv": 3351,
      "Ġbutterf": 3352,
      "ĠFriday": 3353,
      "uments": 3354,
      "Ġclosed": 3355,
      "ĠMond": 3356,
      "Ġflower": 3357,
      "iers": 3358,
      "Ġseemed": 3359,
      "ems": 3360,
      "Ġpeace": 3361,
      "Ġpractice": 3362,
      "Ġsituation": 3363,
      "Ġusers": 3364,
      "Ġmiddle": 3365,
      "vision": 3366,
      "Ph": 3367,
      "Ġcause": 3368,
      "gg": 3369,
      "Ġweap": 3370,
      "ett": 3371,
      "ipped": 3372,
      "Ġvia": 3373,
      "Ġones": 3374,
      "uesday": 3375,
      "erc": 3376,
      "Ġdangerous": 3377,
      "resh": 3378,
      "ĠGoogle": 3379,
      "Ġcurrently": 3380,
      "Ġrob": 3381,
      "ĠFacebook": 3382,
      "astic": 3383,
      "ĠRepublican": 3384,
      "rian": 3385,
      "ification": 3386,
      "Ġsort": 3387,
      "Ġrout": 3388,
      "Ġlat": 3389,
      "aker": 3390,
      "Ġmovie": 3391,
      "ledge": 3392,
      "Ġplant": 3393,
      "Ġglobal": 3394,
      "aging": 3395,
      "ornia": 3396,
      "ĠFebruary": 3397,
      "ĠEven": 3398,
      "Ġbi": 3399,
      "Ġten": 3400,
      "ĠMary": 3401,
      "Ġreports": 3402,
      "ament": 3403,
      "Ġteams": 3404,
      "Ġindividual": 3405,
      "Ġpieces": 3406,
      "ĠRec": 3407,
      "Ġletter": 3408,
      "Ġparticular": 3409,
      "Ġrepe": 3410,
      "Ġdefin": 3411,
      "AL": 3412,
      "ĠLondon": 3413,
      "Ġtrade": 3414,
      "uses": 3415,
      "ession": 3416,
      "ĠBlack": 3417,
      "Ġmention": 3418,
      "Ġdescribed": 3419,
      "Ġbal": 3420,
      "ĠBo": 3421,
      "Ġcolors": 3422,
      "Ġimpress": 3423,
      "ĠStreet": 3424,
      "Ġscreen": 3425,
      "ĠComp": 3426,
      "inary": 3427,
      "Ġgiving": 3428,
      "ĠCourt": 3429,
      "ĠWed": 3430,
      "Ġmist": 3431,
      "Ġwaved": 3432,
      "dom": 3433,
      "Ġpassed": 3434,
      "ĠGrand": 3435,
      "Ġbud": 3436,
      "Ġesc": 3437,
      "mon": 3438,
      "Re": 3439,
      "Ġdesp": 3440,
      "Ġcapital": 3441,
      "ĠEuropean": 3442,
      "ĠII": 3443,
      "Ġprovided": 3444,
      "ecause": 3445,
      "Ġworkers": 3446,
      "Wow": 3447,
      "embered": 3448,
      "Ġcentury": 3449,
      "Ġsummer": 3450,
      "Ġmount": 3451,
      "orrow": 3452,
      "His": 3453,
      "uf": 3454,
      "Ġda": 3455,
      "imately": 3456,
      "ĠMaybe": 3457,
      "Ġlanguage": 3458,
      "Ġexplained": 3459,
      "Ġsil": 3460,
      "Ġpulled": 3461,
      "Ġforces": 3462,
      "Ġtrust": 3463,
      "Ġhous": 3464,
      "Ġstuff": 3465,
      "Ġstreet": 3466,
      "Ġrecomm": 3467,
      "Ġdrink": 3468,
      "Ġcried": 3469,
      "Ġrequired": 3470,
      "Ġvill": 3471,
      "Ġpurch": 3472,
      "based": 3473,
      "Ġalthough": 3474,
      "Ġrules": 3475,
      "Ġremembered": 3476,
      "Ġarrest": 3477,
      "Ġbehav": 3478,
      "ips": 3479,
      "Ġhelping": 3480,
      "ĠMonday": 3481,
      "ĠTuesday": 3482,
      "order": 3483,
      "John": 3484,
      "ĠUK": 3485,
      "ĠCenter": 3486,
      "Ġgrowth": 3487,
      "icles": 3488,
      "Ġinn": 3489,
      "oto": 3490,
      "ext": 3491,
      "200": 3492,
      "Ġdemand": 3493,
      "Ġchanged": 3494,
      "ĠCalifornia": 3495,
      "Ġ{": 3496,
      "ĠHill": 3497,
      "Ġstage": 3498,
      "roy": 3499,
      "Ġride": 3500,
      "ĠCanada": 3501,
      "Ġplaces": 3502,
      "Ġexperi": 3503,
      "arily": 3504,
      "ĠAmericans": 3505,
      "lin": 3506,
      "erve": 3507,
      "Ġcloud": 3508,
      "Ġseven": 3509,
      "ĠSunday": 3510,
      "Mommy": 3511,
      "Ġpopulation": 3512,
      "Ġconduct": 3513,
      "Ġfeed": 3514,
      "asc": 3515,
      "Ġwished": 3516,
      "Ġprint": 3517,
      "Ġterror": 3518,
      "Ġassist": 3519,
      "Ġreading": 3520,
      "Ġyourself": 3521,
      "AC": 3522,
      "Ġhtt": 3523,
      "My": 3524,
      "Ġchair": 3525,
      "Ġbigger": 3526,
      "Ġnatural": 3527,
      "Ġrac": 3528,
      "enced": 3529,
      "Ġthroughout": 3530,
      "Ġdaughter": 3531,
      "Ġcomfort": 3532,
      "ĠGener": 3533,
      "Ġforeign": 3534,
      "Ġ27": 3535,
      "Ġbroke": 3536,
      "nesday": 3537,
      "Ġ28": 3538,
      "Ġmoving": 3539,
      "ĠChe": 3540,
      "Ġcup": 3541,
      "Anna": 3542,
      "Ġprior": 3543,
      "hib": 3544,
      "Ġign": 3545,
      "ĠJames": 3546,
      "Ġquiet": 3547,
      "Ġdinner": 3548,
      "Ġmaybe": 3549,
      "Ġimage": 3550,
      "Ġhopped": 3551,
      "ends": 3552,
      "uals": 3553,
      "Ġleading": 3554,
      "ibly": 3555,
      "Ġthr": 3556,
      "anks": 3557,
      "Ġ26": 3558,
      "Ġunique": 3559,
      "Ġmeant": 3560,
      "Ġful": 3561,
      "abor": 3562,
      "Ġinstall": 3563,
      "Ġhappily": 3564,
      "Ġsystems": 3565,
      "Ġthous": 3566,
      "Ġblood": 3567,
      "ux": 3568,
      "Ġnote": 3569,
      "yond": 3570,
      "reng": 3571,
      "amb": 3572,
      "Ġlif": 3573,
      "Ġepisode": 3574,
      "Ġfaster": 3575,
      "oman": 3576,
      "ĠBro": 3577,
      "down": 3578,
      "With": 3579,
      "==": 3580,
      "Ġprogress": 3581,
      "Oh": 3582,
      "Ġwear": 3583,
      "IT": 3584,
      "ari": 3585,
      "Ġspread": 3586,
      "ĠWilliam": 3587,
      "ograph": 3588,
      "uk": 3589,
      "ĠEast": 3590,
      "aries": 3591,
      "ED": 3592,
      "ursday": 3593,
      "Ġonto": 3594,
      "Ġpaid": 3595,
      "Ġgold": 3596,
      "99": 3597,
      "ĠKe": 3598,
      "Ġdelicious": 3599,
      "Ġhistor": 3600,
      "Ġmedical": 3601,
      "ĠEnglish": 3602,
      "Ġapproach": 3603,
      "Ġparts": 3604,
      "Ġdied": 3605,
      "Ġsens": 3606,
      "Ġpowerful": 3607,
      "Ġwife": 3608,
      "Ġstarting": 3609,
      "Ġdesigned": 3610,
      "osing": 3611,
      "Ġreb": 3612,
      "Why": 3613,
      "ĠPost": 3614,
      "Ġplat": 3615,
      "erry": 3616,
      "Ġfeels": 3617,
      "Ġsea": 3618,
      "Ġthinking": 3619,
      "iring": 3620,
      "Ġmessage": 3621,
      "Ġmovement": 3622,
      "Now": 3623,
      "iment": 3624,
      "undred": 3625,
      "mp": 3626,
      "Ġcritic": 3627,
      "Ġstayed": 3628,
      "US": 3629,
      "Ġstrange": 3630,
      "Ġaw": 3631,
      "ford": 3632,
      "duce": 3633,
      "aph": 3634,
      "ĠRussia": 3635,
      "Ġusually": 3636,
      "Ġgrowing": 3637,
      "eddy": 3638,
      "22": 3639,
      "Ġfrog": 3640,
      "ager": 3641,
      "iving": 3642,
      "obile": 3643,
      "Ġleader": 3644,
      "Ġexcept": 3645,
      "ĠMore": 3646,
      "Ġlevels": 3647,
      "Ġspok": 3648,
      "Ġthrow": 3649,
      "Ġcamer": 3650,
      "olf": 3651,
      "\",": 3652,
      "While": 3653,
      "Ġsave": 3654,
      "ysis": 3655,
      "ĠJe": 3656,
      "Ġsurv": 3657,
      "Hello": 3658,
      "Ġnature": 3659,
      "ĠFirst": 3660,
      "ĠWednesday": 3661,
      "ĠRo": 3662,
      "ÂŃ": 3663,
      "ements": 3664,
      "ears": 3665,
      "Ġremain": 3666,
      "ĠIndia": 3667,
      "Ġwild": 3668,
      "ander": 3669,
      "Ġresour": 3670,
      "Ġlegisl": 3671,
      "inated": 3672,
      "Ġsuccessful": 3673,
      "ucks": 3674,
      "Ġagre": 3675,
      "IC": 3676,
      "Ġwish": 3677,
      "60": 3678,
      "Ġreturned": 3679,
      "Ġcream": 3680,
      "force": 3681,
      "Ġparticularly": 3682,
      "ĠFrench": 3683,
      "Ġcaught": 3684,
      "ico": 3685,
      "ube": 3686,
      "Ġbeach": 3687,
      "Ġfigure": 3688,
      "Ġpurp": 3689,
      "ĠBill": 3690,
      "Ġopportunity": 3691,
      "lear": 3692,
      "Ġdemon": 3693,
      "Ġeducation": 3694,
      "Ġadministration": 3695,
      "Ġcompletely": 3696,
      "Ġeffort": 3697,
      "Ġencour": 3698,
      "Ġoccur": 3699,
      "ampions": 3700,
      "ĠLila": 3701,
      "Ġeconomy": 3702,
      "ĠPar": 3703,
      "Ġcanc": 3704,
      "Ġtail": 3705,
      "Ġmoral": 3706,
      "box": 3707,
      "Ġvictim": 3708,
      "Ġdrop": 3709,
      "Ġund": 3710,
      "Ġbutterfly": 3711,
      "Ġbiggest": 3712,
      "Ġscore": 3713,
      "het": 3714,
      "ension": 3715,
      "ests": 3716,
      "rec": 3717,
      "ĠSim": 3718,
      "uing": 3719,
      "hold": 3720,
      "Ġdocument": 3721,
      "aturday": 3722,
      "âĢĿ.": 3723,
      "field": 3724,
      "ria": 3725,
      "Ġincreasing": 3726,
      "ĠThursday": 3727,
      "Ġanimal": 3728,
      "isions": 3729,
      "Ġincludes": 3730,
      "Ġterm": 3731,
      "arian": 3732,
      "Ġcomputer": 3733,
      "24": 3734,
      "vertis": 3735,
      "Ġdamage": 3736,
      "Ġsmell": 3737,
      "Ġperm": 3738,
      "ĠMon": 3739,
      "May": 3740,
      "ĠMor": 3741,
      "utions": 3742,
      "ĠHere": 3743,
      "Ġjournal": 3744,
      "inger": 3745,
      "Ġsister": 3746,
      "ĠHigh": 3747,
      "tr": 3748,
      "Ġstorm": 3749,
      "Ġlatest": 3750,
      "Ġfunction": 3751,
      "ĠTommy": 3752,
      "oday": 3753,
      "Timmy": 3754,
      "hest": 3755,
      "ĠTimes": 3756,
      "Ġthinks": 3757,
      "Ġsou": 3758,
      "Sh": 3759,
      "ĠTex": 3760,
      "Ġfighting": 3761,
      "?âĢĿ": 3762,
      "Ġfootball": 3763,
      "Ġmill": 3764,
      "ancy": 3765,
      "ĠSchool": 3766,
      "Ġextreme": 3767,
      "ĠJew": 3768,
      "ĠIS": 3769,
      "stitution": 3770,
      "Ġregion": 3771,
      "gal": 3772,
      "rast": 3773,
      "Ġholding": 3774,
      "Ġchoice": 3775,
      "istan": 3776,
      "OS": 3777,
      "Ġintellig": 3778,
      "wood": 3779,
      "ida": 3780,
      "ruct": 3781,
      "Ġturns": 3782,
      "Ġflying": 3783,
      "ĠSoc": 3784,
      "irty": 3785,
      "80": 3786,
      "Ġclothes": 3787,
      "icate": 3788,
      "ĠGeorge": 3789,
      "ĠKore": 3790,
      "Ġadditional": 3791,
      "Ġstars": 3792,
      "Ġpink": 3793,
      "Ġconsist": 3794,
      "Ġdate": 3795,
      "aly": 3796,
      "Ġhill": 3797,
      "Ġdetails": 3798,
      "Ġtor": 3799,
      "Ġreceive": 3800,
      "Ġcenter": 3801,
      "Be": 3802,
      "Ġjoy": 3803,
      "Ġstreng": 3804,
      "Ġmouth": 3805,
      "Ġhospital": 3806,
      "Ġpoll": 3807,
      "sych": 3808,
      "ĠInt": 3809,
      "ĠAir": 3810,
      "Ġwatching": 3811,
      "Ġwet": 3812,
      "icted": 3813,
      "ĠRussian": 3814,
      "adem": 3815,
      "Ġahead": 3816,
      "Ġincreased": 3817,
      "ĠLeague": 3818,
      "Ġmachine": 3819,
      "aches": 3820,
      "Ġimmediately": 3821,
      "Ġtour": 3822,
      "asure": 3823,
      "ĠNet": 3824,
      "ĠMichael": 3825,
      "Ġdropped": 3826,
      "elly": 3827,
      "ket": 3828,
      "Ġdespite": 3829,
      "Ġ194": 3830,
      "nces": 3831,
      "ĠIslam": 3832,
      "Ġeye": 3833,
      "Ġslowly": 3834,
      "Ġstyle": 3835,
      "Ġcitiz": 3836,
      "Ġtitle": 3837,
      "Ġcharacters": 3838,
      "ĠTH": 3839,
      "Ġproperty": 3840,
      "ĠParty": 3841,
      "itation": 3842,
      "ounce": 3843,
      "men": 3844,
      "igr": 3845,
      "Ġult": 3846,
      "Ġasks": 3847,
      "ĠCoun": 3848,
      "Ġju": 3849,
      "Ġdriver": 3850,
      "aint": 3851,
      "Ġbattle": 3852,
      "Ġpromised": 3853,
      "Ġblog": 3854,
      "egr": 3855,
      "imum": 3856,
      "vey": 3857,
      "!!": 3858,
      "orters": 3859,
      "Ġregul": 3860,
      "ago": 3861,
      "Ġexactly": 3862,
      "Ġattract": 3863,
      "Ġsafety": 3864,
      "icks": 3865,
      "Ġstandard": 3866,
      ");": 3867,
      "Ġriver": 3868,
      "ban": 3869,
      "Ġfine": 3870,
      "Ġdev": 3871,
      "Ġbike": 3872,
      "ĠAssoci": 3873,
      "Ġ2007": 3874,
      "ĠIndian": 3875,
      "iation": 3876,
      "Ġdisplay": 3877,
      "Ġrare": 3878,
      "Ġarch": 3879,
      "ously": 3880,
      "ãģ": 3881,
      "ĠRober": 3882,
      "ĠBrown": 3883,
      "irit": 3884,
      "Ġregular": 3885,
      "Ġdoub": 3886,
      "Ġquarter": 3887,
      "Ġconvers": 3888,
      "Ġx": 3889,
      "Ġhundred": 3890,
      "ĠOff": 3891,
      "Ġmeasure": 3892,
      "Ġscience": 3893,
      "Ġdoctor": 3894,
      "oyal": 3895,
      "ĠSand": 3896,
      "Ġoffered": 3897,
      "Ġeffects": 3898,
      "Ġstudent": 3899,
      "Ġpaint": 3900,
      "Ġcosts": 3901,
      "Ġdance": 3902,
      "Ġstation": 3903,
      "ipp": 3904,
      "ams": 3905,
      "reedom": 3906,
      "ĠYour": 3907,
      "apped": 3908,
      "aling": 3909,
      "Ġprec": 3910,
      "iable": 3911,
      "ĠSaturday": 3912,
      "Ġcalls": 3913,
      "inese": 3914,
      "Ġdry": 3915,
      "ĠRich": 3916,
      "Ġdeveloped": 3917,
      "Ġnorth": 3918,
      "ĠDay": 3919,
      "Ġscene": 3920,
      "Ġsociety": 3921,
      "ĠVal": 3922,
      "Ġmajority": 3923,
      "AM": 3924,
      "Ġsounds": 3925,
      "Ġforget": 3926,
      "Ġdeg": 3927,
      "Ġpositive": 3928,
      "Ġliber": 3929,
      "Ġchoose": 3930,
      "Ġcomplex": 3931,
      "Ġplatform": 3932,
      "ipe": 3933,
      "Ġfile": 3934,
      "orks": 3935,
      "Ġgrad": 3936,
      "Ġneighbor": 3937,
      "apes": 3938,
      "Ġcounter": 3939,
      "aching": 3940,
      "Ġimpro": 3941,
      "enty": 3942,
      "Tr": 3943,
      "ĠSally": 3944,
      "Ġbeginning": 3945,
      "Ġmultiple": 3946,
      "Ġworried": 3947,
      "Ġconnect": 3948,
      "Ġdirectly": 3949,
      "Ġpush": 3950,
      "ston": 3951,
      "ĠPlay": 3952,
      "Ġnormal": 3953,
      "Ġhide": 3954,
      "using": 3955,
      "Ġbelong": 3956,
      "Ġlearning": 3957,
      "Ġaccident": 3958,
      "bur": 3959,
      "Ġbeg": 3960,
      "ĠGreen": 3961,
      "Ġ60": 3962,
      "rim": 3963,
      "ustr": 3964,
      "Ġmyself": 3965,
      "Ġstra": 3966,
      "Ġeasily": 3967,
      "Ġjobs": 3968,
      "Ġconditions": 3969,
      "Ġconcept": 3970,
      "Ġremains": 3971,
      "Ġsexual": 3972,
      "Ġuser": 3973,
      "Ġble": 3974,
      "Ġut": 3975,
      "Ġarms": 3976,
      "Ġtick": 3977,
      "ĠMcC": 3978,
      "Ġautom": 3979,
      "ufact": 3980,
      "Ġcalling": 3981,
      "23": 3982,
      "ĠCons": 3983,
      "Ġtro": 3984,
      "Ġofficers": 3985,
      "Ġculture": 3986,
      "Ġver": 3987,
      "Ġinsp": 3988,
      "Ġclaims": 3989,
      "Ġcertainly": 3990,
      "ĠEngland": 3991,
      "wise": 3992,
      "Ġprison": 3993,
      "Ġ29": 3994,
      "ĠReg": 3995,
      "Ġguy": 3996,
      "ĠJen": 3997,
      "Ġsitting": 3998,
      "Ġideas": 3999,
      "cks": 4000,
      "Ġscary": 4001,
      "All": 4002,
      "ilies": 4003,
      "itor": 4004,
      "Ġdemonstr": 4005,
      "Ġsoftware": 4006,
      "ĠAustralia": 4007,
      "bl": 4008,
      "ĠFin": 4009,
      "echan": 4010,
      "Ġpressure": 4011,
      "Ġreflect": 4012,
      "Ġefforts": 4013,
      "Ġunf": 4014,
      "net": 4015,
      "Ġbeyond": 4016,
      "arp": 4017,
      "ĠSenate": 4018,
      "raq": 4019,
      "Sam": 4020,
      "Ġtrip": 4021,
      "urt": 4022,
      "Ġsched": 4023,
      "ĠWhy": 4024,
      "irrel": 4025,
      "aine": 4026,
      "Ġpromot": 4027,
      "Ġcookies": 4028,
      "Ġbudget": 4029,
      "erved": 4030,
      "ĠBilly": 4031,
      "ĠInst": 4032,
      "Ġsect": 4033,
      "Ġeating": 4034,
      "Ġattacks": 4035,
      "--------": 4036,
      "ding": 4037,
      "Ġnom": 4038,
      "Ġopin": 4039,
      "Ġhealthy": 4040,
      "Ġmur": 4041,
      "ado": 4042,
      "ĠTexas": 4043,
      "ville": 4044,
      "ĠMart": 4045,
      "Ġrefer": 4046,
      "Ġcastle": 4047,
      "kend": 4048,
      "Ġtreatment": 4049,
      "Ġlion": 4050,
      "Ġaren": 4051,
      "ĠLa": 4052,
      "ĠSuper": 4053,
      "Ġnearby": 4054,
      "ading": 4055,
      "ĠDaisy": 4056,
      "ica": 4057,
      "ĠInternational": 4058,
      "akers": 4059,
      "oe": 4060,
      "za": 4061,
      "ivity": 4062,
      "Ġinvestigation": 4063,
      "Ġpow": 4064,
      "Ġbrain": 4065,
      "Ġshop": 4066,
      "Ġimplement": 4067,
      "Ġleaving": 4068,
      "ĠSmith": 4069,
      "Ġspark": 4070,
      "Do": 4071,
      "Ġhungry": 4072,
      "ĠMag": 4073,
      "Ġconserv": 4074,
      "band": 4075,
      "Ġbasket": 4076,
      "acks": 4077,
      "Ġcustomers": 4078,
      "rs": 4079,
      "Ġ*": 4080,
      "Ġobvious": 4081,
      "Ġking": 4082,
      "vention": 4083,
      "Ġlimited": 4084,
      "Ġdefense": 4085,
      "Ġspend": 4086,
      "ĠBenny": 4087,
      "rief": 4088,
      "Ġdisp": 4089,
      "Ġtruth": 4090,
      "Ġwelcome": 4091,
      "Ġended": 4092,
      "entially": 4093,
      "Ġsongs": 4094,
      "Ġweb": 4095,
      "oved": 4096,
      "ĠGeneral": 4097,
      "ĠChinese": 4098,
      "Ġpushed": 4099,
      "Jack": 4100,
      "Ġcrow": 4101,
      "atever": 4102,
      "Ġsales": 4103,
      "Ġtom": 4104,
      "duction": 4105,
      "Ġrelative": 4106,
      "Ġhol": 4107,
      "Ġbath": 4108,
      "Ġknowledge": 4109,
      "Ġdifference": 4110,
      "Ġlargest": 4111,
      "ĠStar": 4112,
      "merc": 4113,
      "Ġnecessary": 4114,
      "OP": 4115,
      "Ġbreat": 4116,
      "ĠUp": 4117,
      "Ġflag": 4118,
      "Ġfeature": 4119,
      "berg": 4120,
      "uclear": 4121,
      "rupt": 4122,
      "Ġfat": 4123,
      "Ġorganization": 4124,
      "Ġshown": 4125,
      "Ġspecies": 4126,
      "Ġforgot": 4127,
      "Ġhid": 4128,
      "Ġofficer": 4129,
      "Ġmeaning": 4130,
      "ĠIraq": 4131,
      "Ġsquirrel": 4132,
      "ĠGovern": 4133,
      "Ġcomments": 4134,
      "Ġburn": 4135,
      "ĠCap": 4136,
      "Ġnames": 4137,
      "Ġgoals": 4138,
      "Ġviolence": 4139,
      "Ġcrim": 4140,
      "Ġaim": 4141,
      "Ġperhaps": 4142,
      "Ġchief": 4143,
      "Ġteacher": 4144,
      "Ġestabl": 4145,
      "Ġrelated": 4146,
      "OT": 4147,
      "just": 4148,
      "oses": 4149,
      "Ġknows": 4150,
      "Ġlines": 4151,
      "ĠMuslim": 4152,
      "Ġcorner": 4153,
      "Ġcaused": 4154,
      "ĠAlex": 4155,
      "Ġnoted": 4156,
      "omen": 4157,
      "ĠIran": 4158,
      "Ġdise": 4159,
      "Ġguys": 4160,
      "ĠÂ£": 4161,
      "stitute": 4162,
      "urance": 4163,
      "Ġcompared": 4164,
      "][": 4165,
      "Ġdestroy": 4166,
      "Ġestim": 4167,
      "Ġeverywhere": 4168,
      "ength": 4169,
      "ĠDis": 4170,
      "Ġclimate": 4171,
      "Ġsuddenly": 4172,
      "aded": 4173,
      "Ġbought": 4174,
      "ocol": 4175,
      "venue": 4176,
      "Ġtoward": 4177,
      "Ġstraight": 4178,
      "Ġpatient": 4179,
      "ĠOf": 4180,
      "Ġreduc": 4181,
      "Ġlic": 4182,
      "Ġasking": 4183,
      "opping": 4184,
      "ĠRob": 4185,
      "ports": 4186,
      "Ġfrequ": 4187,
      "Ġcorrect": 4188,
      "Ġlose": 4189,
      "aked": 4190,
      "Ġcopy": 4191,
      "Ġfirm": 4192,
      "Ġmine": 4193,
      "Ġpolic": 4194,
      "ĠâĢ¦": 4195,
      "ĠStud": 4196,
      "Ġlistened": 4197,
      "Ġshel": 4198,
      "Ġfailed": 4199,
      "ares": 4200,
      "Ġpattern": 4201,
      "Ġcollege": 4202,
      "aves": 4203,
      "cean": 4204,
      "Ġfan": 4205,
      "Ġbrown": 4206,
      "Ġwaiting": 4207,
      "now": 4208,
      "Ġsouth": 4209,
      "Ġintroduc": 4210,
      "ateful": 4211,
      "ĠAngel": 4212,
      "bon": 4213,
      "ĠTur": 4214,
      "Ġaf": 4215,
      "Ġproduced": 4216,
      "Ġisland": 4217,
      "Ġharm": 4218,
      "ID": 4219,
      "Ġschools": 4220,
      "ocket": 4221,
      "21": 4222,
      "Ġcoach": 4223,
      "Cl": 4224,
      "Ġcontribut": 4225,
      "Ġreality": 4226,
      "Ġstuck": 4227,
      "ĠMid": 4228,
      "Ġdevice": 4229,
      "Ġoverall": 4230,
      "Ġclimbed": 4231,
      "kin": 4232,
      "Ġallows": 4233,
      "Ġappears": 4234,
      "Ġsigned": 4235,
      "Ġtells": 4236,
      "ĠAmy": 4237,
      "riage": 4238,
      "27": 4239,
      "Ġmagic": 4240,
      "iders": 4241,
      "ĠAnt": 4242,
      "Ġcredit": 4243,
      "Ġuses": 4244,
      "Ġcorpor": 4245,
      "Of": 4246,
      "Ġprin": 4247,
      "ening": 4248,
      "Ġprinc": 4249,
      "olute": 4250,
      "ĠMad": 4251,
      "rol": 4252,
      "Ġinstit": 4253,
      "Ġ}": 4254,
      "eal": 4255,
      "ĠAccording": 4256,
      "Ġcarried": 4257,
      "FL": 4258,
      "ero": 4259,
      "ĠOur": 4260,
      "Ġfamilies": 4261,
      "Ġdetail": 4262,
      "ĠWind": 4263,
      "Ġow": 4264,
      "ki": 4265,
      "Ġbottom": 4266,
      "ĠTheir": 4267,
      "ĠBel": 4268,
      "ĠMac": 4269,
      "rey": 4270,
      "ounds": 4271,
      "Ġanalysis": 4272,
      "Ġserved": 4273,
      "Ġcentral": 4274,
      "Ġforced": 4275,
      "Ġavoid": 4276,
      "change": 4277,
      "Ġphysical": 4278,
      "Ġtelevision": 4279,
      "Ġaware": 4280,
      "OK": 4281,
      "Ġbul": 4282,
      "Ġindependent": 4283,
      "ĠBu": 4284,
      "Ġweight": 4285,
      "Ġspending": 4286,
      "Ġchurch": 4287,
      "ointed": 4288,
      "Ġremind": 4289,
      "ĠDonald": 4290,
      "ugh": 4291,
      "ĠPeter": 4292,
      "uffy": 4293,
      "Ġspeech": 4294,
      "ĠPet": 4295,
      "Ġprem": 4296,
      "Ġprofessional": 4297,
      "Ġaltern": 4298,
      "Here": 4299,
      "iance": 4300,
      "Ġprovides": 4301,
      "Ġreasons": 4302,
      "35": 4303,
      "Ġfresh": 4304,
      "Is": 4305,
      "Ġlake": 4306,
      "Ġmechan": 4307,
      "lict": 4308,
      "sey": 4309,
      "ĠMex": 4310,
      "encies": 4311,
      "Ġprojects": 4312,
      "Ġprograms": 4313,
      "Ġduck": 4314,
      "Ġmanufact": 4315,
      "ĠApple": 4316,
      "Ġhero": 4317,
      "Ġwoods": 4318,
      "Ġblank": 4319,
      "Ġhighly": 4320,
      "Ġweak": 4321,
      "Ġplaced": 4322,
      "Ġvac": 4323,
      "Ġmiles": 4324,
      "Ġshut": 4325,
      "vered": 4326,
      "Ġstream": 4327,
      "ĠChristian": 4328,
      "ĠPlease": 4329,
      "ĠArt": 4330,
      "Ġlarger": 4331,
      "Ġdiscovered": 4332,
      "itz": 4333,
      "ĠWell": 4334,
      "Ġshowing": 4335,
      "ĠChar": 4336,
      "rif": 4337,
      "ords": 4338,
      "Ġbowl": 4339,
      "EC": 4340,
      "ĠMinister": 4341,
      "Ġlaunch": 4342,
      "Ġnovel": 4343,
      "Ġwaited": 4344,
      "itely": 4345,
      "Ġoffers": 4346,
      "Ġ2006": 4347,
      "ropri": 4348,
      "Ġjoined": 4349,
      "Ġpointed": 4350,
      "Ġbrand": 4351,
      "Ġenter": 4352,
      "Ġcharge": 4353,
      "ĠTor": 4354,
      "ĠMost": 4355,
      "Ġskin": 4356,
      "Ġleague": 4357,
      "Ġpun": 4358,
      "Ġjourney": 4359,
      "Ġincred": 4360,
      "AP": 4361,
      "Ġfinish": 4362,
      "yl": 4363,
      "Ġsurround": 4364,
      "26": 4365,
      "ĠCouncil": 4366,
      "ĠGold": 4367,
      "house": 4368,
      "Ġhour": 4369,
      "Ġoptions": 4370,
      "ĠHam": 4371,
      "Ġ>": 4372,
      "Ġthrew": 4373,
      "Sp": 4374,
      "urb": 4375,
      "known": 4376,
      "ĠFlor": 4377,
      "ga": 4378,
      "Ġactions": 4379,
      "Ġindividuals": 4380,
      "Ġsmiles": 4381,
      "lying": 4382,
      "Ġchallenge": 4383,
      "han": 4384,
      "vest": 4385,
      "Ġfully": 4386,
      "mercial": 4387,
      "never": 4388,
      "Ġdefe": 4389,
      "Ġhar": 4390,
      "Ġkid": 4391,
      "Ġkiss": 4392,
      "ĠDemocratic": 4393,
      "Ġthousands": 4394,
      "aming": 4395,
      "Ġmicro": 4396,
      "ĠFranc": 4397,
      "Ġbelieved": 4398,
      "Ġgrandma": 4399,
      "ĠOther": 4400,
      "By": 4401,
      "iest": 4402,
      "ulated": 4403,
      "Ġpreviously": 4404,
      "Ġagency": 4405,
      "Ġoption": 4406,
      "ĠScott": 4407,
      "Ġbenefits": 4408,
      "Ġliter": 4409,
      "Ġdaddy": 4410,
      "Ġactivity": 4411,
      "Ġadvant": 4412,
      "Ġcommand": 4413,
      "ĠGermany": 4414,
      "Ġmanager": 4415,
      "Ġacqu": 4416,
      "Ġcris": 4417,
      "Ġreligious": 4418,
      "Ġweekend": 4419,
      "Ġadult": 4420,
      "Ġsubm": 4421,
      "igned": 4422,
      "outhern": 4423,
      "ashed": 4424,
      "AD": 4425,
      "Ġsection": 4426,
      "Ġsmaller": 4427,
      "Sara": 4428,
      "adow": 4429,
      "wide": 4430,
      "iverse": 4431,
      "unn": 4432,
      "Ġegg": 4433,
      "ĠPort": 4434,
      "Ġsuggested": 4435,
      "Ġ000": 4436,
      "ĠUnion": 4437,
      "Ġmap": 4438,
      "Ġintegr": 4439,
      "ĠLou": 4440,
      "Ġsilly": 4441,
      "ĠDuring": 4442,
      "Ġfill": 4443,
      "Ġmail": 4444,
      "Ġmer": 4445,
      "Ġtemper": 4446,
      "Ġexpand": 4447,
      "Ġrestr": 4448,
      "Ġopening": 4449,
      "Ġtools": 4450,
      "Ġmanagement": 4451,
      "Ġowners": 4452,
      "Ġconference": 4453,
      "Ġraised": 4454,
      "Ġscr": 4455,
      "earch": 4456,
      "igg": 4457,
      "Ġrule": 4458,
      "Ġnotice": 4459,
      "mark": 4460,
      "Maybe": 4461,
      "Ġtalked": 4462,
      "ils": 4463,
      "Ġseeing": 4464,
      "Ġresources": 4465,
      "Ġresist": 4466,
      "Ġwearing": 4467,
      "Ġrise": 4468,
      "Ġsick": 4469,
      "ĠEarth": 4470,
      "Ġrat": 4471,
      "Ġtraditional": 4472,
      "Ġemot": 4473,
      "Ġtiny": 4474,
      "Ġscen": 4475,
      "Ġensure": 4476,
      "Ġneck": 4477,
      "Ġpuppy": 4478,
      "Ġ195": 4479,
      "Ġtower": 4480,
      "BI": 4481,
      "yard": 4482,
      "OM": 4483,
      "Ġhighest": 4484,
      "Ġrap": 4485,
      "ooth": 4486,
      "Ġhell": 4487,
      "Ġpatients": 4488,
      "ped": 4489,
      "yan": 4490,
      "ĠLaw": 4491,
      "Ġhoped": 4492,
      "Ġgent": 4493,
      "Ġcreating": 4494,
      "Ġgreater": 4495,
      "Ġresearc": 4496,
      "Ġbeat": 4497,
      "Ġrestaur": 4498,
      "aith": 4499,
      "Ġprimary": 4500,
      "ĠGreat": 4501,
      "vertisement": 4502,
      "org": 4503,
      "osh": 4504,
      "Ġstanding": 4505,
      "Ġmonster": 4506,
      "Ġradio": 4507,
      "ĠInc": 4508,
      "ĠAre": 4509,
      "ĠBay": 4510,
      "Ġcamera": 4511,
      "ĠMike": 4512,
      "Ġagree": 4513,
      "Ġcart": 4514,
      "Just": 4515,
      "Ġqual": 4516,
      "uty": 4517,
      "Ġseek": 4518,
      "Ġdebate": 4519,
      "Ġtrouble": 4520,
      "Ġminor": 4521,
      "Ġmanaged": 4522,
      "hem": 4523,
      "Ġhonest": 4524,
      "ds": 4525,
      "fl": 4526,
      "ription": 4527,
      "ET": 4528,
      "Ġfox": 4529,
      "28": 4530,
      "Ġanaly": 4531,
      "Ġpromise": 4532,
      "vere": 4533,
      "Ġsusp": 4534,
      "Ġstepped": 4535,
      "Ġglass": 4536,
      "Ġanc": 4537,
      "aud": 4538,
      "ĠPhil": 4539,
      "ios": 4540,
      "Ġstret": 4541,
      "Ġapplication": 4542,
      "Ġexciting": 4543,
      "Ġsenior": 4544,
      "ĠFrance": 4545,
      "Ġcontinues": 4546,
      "Ġgrateful": 4547,
      "70": 4548,
      "phone": 4549,
      "Ġstatus": 4550,
      "Ġgift": 4551,
      "Ġlink": 4552,
      "Ġmission": 4553,
      "ĠAlthough": 4554,
      "Ġstudies": 4555,
      "Ġborn": 4556,
      "Ġâ": 4557,
      "ĠRepublicans": 4558,
      "29": 4559,
      "Ġsuspect": 4560,
      "icago": 4561,
      "Ġconfir": 4562,
      "Ġcitizens": 4563,
      "ĠTrans": 4564,
      "ribution": 4565,
      "Ġdraft": 4566,
      "olic": 4567,
      "azine": 4568,
      "Ġexecutive": 4569,
      "met": 4570,
      "while": 4571,
      "orthern": 4572,
      "cing": 4573,
      "Ġcovered": 4574,
      "Ġolder": 4575,
      "craft": 4576,
      "nee": 4577,
      "rig": 4578,
      "ression": 4579,
      "Ġslight": 4580,
      "Ġnuclear": 4581,
      "izes": 4582,
      "Ġincome": 4583,
      "Ġserve": 4584,
      "Ġbusy": 4585,
      "itude": 4586,
      "Ġgenerally": 4587,
      "iate": 4588,
      "ĠPeople": 4589,
      "ategy": 4590,
      "Ġvoters": 4591,
      "espite": 4592,
      "Ġconflict": 4593,
      "Ġstated": 4594,
      "orney": 4595,
      "Ġconcer": 4596,
      "Ġpsych": 4597,
      "acing": 4598,
      "ĠThank": 4599,
      "omas": 4600,
      "Ġrates": 4601,
      "orial": 4602,
      "onents": 4603,
      "raid": 4604,
      "Ġstructure": 4605,
      "ĠEll": 4606,
      "Ġfinding": 4607,
      "ĠHall": 4608,
      "alled": 4609,
      "Ġresponsible": 4610,
      "Ġdrove": 4611,
      "Ġhappens": 4612,
      "Ġitems": 4613,
      "ampionship": 4614,
      "Ġpretend": 4615,
      "ighter": 4616,
      "Ġbutton": 4617,
      "Ġlibr": 4618,
      "vant": 4619,
      "gl": 4620,
      "Ġamazed": 4621,
      "orter": 4622,
      "Un": 4623,
      "ĠMany": 4624,
      "Ġseat": 4625,
      "Ġcondition": 4626,
      "ancing": 4627,
      "een": 4628,
      "ING": 4629,
      "Ġenem": 4630,
      "Ġadop": 4631,
      "Ġfemale": 4632,
      "ĠMatt": 4633,
      "Ġwealth": 4634,
      "Ġdriving": 4635,
      "iqu": 4636,
      "Ġbench": 4637,
      "Ġlaun": 4638,
      "see": 4639,
      "ota": 4640,
      "Ġalleged": 4641,
      "Ġplane": 4642,
      "yr": 4643,
      "ography": 4644,
      "Ġorganiz": 4645,
      "ĠHealth": 4646,
      "Ġagreement": 4647,
      "Ġshooting": 4648,
      "iven": 4649,
      "):": 4650,
      "elling": 4651,
      "Ġmagical": 4652,
      "part": 4653,
      "Ġrough": 4654,
      "Every": 4655,
      "asion": 4656,
      "Ġfunct": 4657,
      "ae": 4658,
      "Ġachieve": 4659,
      "Ġetc": 4660,
      "ĠDef": 4661,
      "Ġupset": 4662,
      "OU": 4663,
      "Ġbuck": 4664,
      "Ġcandidate": 4665,
      "ien": 4666,
      "Ġyard": 4667,
      "ĠMil": 4668,
      "IA": 4669,
      "Ġpool": 4670,
      "Ġlocation": 4671,
      "Ġmyster": 4672,
      "ĠFlorida": 4673,
      "Ġactivities": 4674,
      "Ġeffective": 4675,
      "Ġrevealed": 4676,
      "ĠInternet": 4677,
      "ties": 4678,
      "itness": 4679,
      "45": 4680,
      "Ġunderstanding": 4681,
      "ĠArab": 4682,
      "Ġguess": 4683,
      "Ġemployees": 4684,
      "Ġgrew": 4685,
      "Sc": 4686,
      "Ġbatter": 4687,
      "aving": 4688,
      "ona": 4689,
      "Ġinterested": 4690,
      "istry": 4691,
      "Ġspirit": 4692,
      "ĠRiver": 4693,
      "igration": 4694,
      "Ġsources": 4695,
      "ĠIsland": 4696,
      "Ġapparent": 4697,
      "Ġlunch": 4698,
      "Max": 4699,
      "Ġsolution": 4700,
      "Ġsupposed": 4701,
      "Ġconstruction": 4702,
      "inn": 4703,
      "ĠDirect": 4704,
      "Ġgiant": 4705,
      "pre": 4706,
      "Ġhang": 4707,
      "Ġdigital": 4708,
      "Ġwhom": 4709,
      "ĠMet": 4710,
      "Ġreform": 4711,
      "Ġshell": 4712,
      "Ġnut": 4713,
      "coin": 4714,
      "ĠGet": 4715,
      "Ġclaimed": 4716,
      "Ġstrugg": 4717,
      "Ġamb": 4718,
      "Ġplants": 4719,
      "Ġadding": 4720,
      "rial": 4721,
      "33": 4722,
      "Ġseparate": 4723,
      "Ġdirty": 4724,
      "Ġbrief": 4725,
      "Ġuseful": 4726,
      "Ġrich": 4727,
      "Ġspin": 4728,
      "Ġsuit": 4729,
      "www": 4730,
      "Ġfamous": 4731,
      "Ġmemory": 4732,
      "Ġexerc": 4733,
      "Okay": 4734,
      "Ġtypes": 4735,
      "ĠAc": 4736,
      "ĠUs": 4737,
      "Ġexpensive": 4738,
      "Ġmostly": 4739,
      "yer": 4740,
      "Ġweapons": 4741,
      "Ġproduce": 4742,
      "odes": 4743,
      "Ġtwe": 4744,
      "EO": 4745,
      "ĠCup": 4746,
      "Ġhttp": 4747,
      "Ġuns": 4748,
      "Ġphoto": 4749,
      "Ġscale": 4750,
      "Ġstrength": 4751,
      "Ġdecades": 4752,
      "bert": 4753,
      "eds": 4754,
      "ĠMo": 4755,
      "Ġbecoming": 4756,
      "usion": 4757,
      "ĠBer": 4758,
      "90": 4759,
      "Ġframe": 4760,
      "Ġir": 4761,
      "Ġprices": 4762,
      "Ġdetermined": 4763,
      "ĠMal": 4764,
      "Ġ2005": 4765,
      "Pro": 4766,
      "Ġ31": 4767,
      "Ġdeliver": 4768,
      "Ġcritical": 4769,
      "Me": 4770,
      "Ġhelps": 4771,
      "Ġskills": 4772,
      "Ġring": 4773,
      "Ġclearly": 4774,
      "Ġunc": 4775,
      "Ġdaily": 4776,
      "Ġbasic": 4777,
      "Ġcrime": 4778,
      "Ġvirt": 4779,
      "Ġaward": 4780,
      "Ġvictory": 4781,
      "Ġcities": 4782,
      "Ġgentle": 4783,
      "Ġsurface": 4784,
      "Ġbranch": 4785,
      "Ġscre": 4786,
      "Ġcolorful": 4787,
      "Ex": 4788,
      "Not": 4789,
      "Ġwinning": 4790,
      "Ġestablished": 4791,
      "ĠChicago": 4792,
      "ĠOp": 4793,
      "Ġdecide": 4794,
      "ĠDemocrats": 4795,
      "Ġille": 4796,
      "ĠÃ": 4797,
      "Ġoperations": 4798,
      "Ġbalance": 4799,
      "Ġaffect": 4800,
      "Ar": 4801,
      "ĠChurch": 4802,
      "ius": 4803,
      "Ġrecords": 4804,
      "ĠMiss": 4805,
      "ĠBig": 4806,
      "Ġshoes": 4807,
      "Ġpolitics": 4808,
      "Ġimages": 4809,
      "Ġeth": 4810,
      "ĠMod": 4811,
      "ĠVir": 4812,
      "useum": 4813,
      "Ġafraid": 4814,
      "Ġteddy": 4815,
      "ometimes": 4816,
      "Ġactive": 4817,
      "Ġeffic": 4818,
      "Ġcollection": 4819,
      "umn": 4820,
      "Ġcreative": 4821,
      "Ġabsolute": 4822,
      "Ġassociated": 4823,
      "ĠOver": 4824,
      "oly": 4825,
      "uman": 4826,
      "Ġvillage": 4827,
      "Ġearth": 4828,
      "ĠDist": 4829,
      "Ġ80": 4830,
      "Ġwhatever": 4831,
      "lant": 4832,
      "Ġinfluence": 4833,
      "ĠPolice": 4834,
      "Ġtelling": 4835,
      "Ġcrisis": 4836,
      "Ġvehicle": 4837,
      "ĠBre": 4838,
      "Ġbite": 4839,
      "ooper": 4840,
      "hered": 4841,
      "Ġfaces": 4842,
      "Ġpig": 4843,
      "ether": 4844,
      "Ġboo": 4845,
      "EL": 4846,
      "ĠDel": 4847,
      "Ġcandy": 4848,
      "Ġ(@": 4849,
      "ĠCommun": 4850,
      "Ġcommercial": 4851,
      "Ġparties": 4852,
      "Ġdepend": 4853,
      "Ġ35": 4854,
      "New": 4855,
      "Some": 4856,
      "Ġputs": 4857,
      "Ġwilling": 4858,
      "Ġtransfer": 4859,
      "ĠKen": 4860,
      "Ġincident": 4861,
      "icip": 4862,
      "Ġlocated": 4863,
      "ĠAnn": 4864,
      "ĠRobert": 4865,
      "Ġactual": 4866,
      "ĠMolly": 4867,
      "icit": 4868,
      "Ġdistrict": 4869,
      "Ġmissing": 4870,
      "Ġintelligence": 4871,
      "ĠMill": 4872,
      "gency": 4873,
      "Ġgar": 4874,
      "Ġpresidential": 4875,
      "inct": 4876,
      "100": 4877,
      "onent": 4878,
      "Ġpartners": 4879,
      "Ġrecommend": 4880,
      "Ġdistance": 4881,
      "Ġaudience": 4882,
      "Ġnine": 4883,
      "Ġtough": 4884,
      "Ġfreedom": 4885,
      "asy": 4886,
      "Ġbehavior": 4887,
      "Ġlength": 4888,
      "Ġcards": 4889,
      "ĠQue": 4890,
      "Ġchem": 4891,
      "ola": 4892,
      "Ġcrying": 4893,
      "ĠJohnson": 4894,
      "Ġmarriage": 4895,
      "Ġpurpose": 4896,
      "Ġdragon": 4897,
      "Ġspoke": 4898,
      "Ġcoal": 4899,
      "Ġfarmer": 4900,
      "Ġputting": 4901,
      "....": 4902,
      "Ġhaven": 4903,
      "Ġimpl": 4904,
      "vis": 4905,
      "ste": 4906,
      "Ġsinging": 4907,
      "Ġkick": 4908,
      "roid": 4909,
      "ĠPri": 4910,
      "ĠWestern": 4911,
      "arsh": 4912,
      "ĠEv": 4913,
      "Ġcontroll": 4914,
      "term": 4915,
      "Ġforever": 4916,
      "Ġcontain": 4917,
      "ĠOh": 4918,
      "ĠSecret": 4919,
      "Ġmissed": 4920,
      "ĠBecause": 4921,
      "ads": 4922,
      "anda": 4923,
      "overy": 4924,
      "ĠCommission": 4925,
      "Ġsharp": 4926,
      "reek": 4927,
      "Ġwave": 4928,
      "well": 4929,
      "Ġcompetition": 4930,
      "Ġbasis": 4931,
      "Ġcriminal": 4932,
      "Le": 4933,
      "Finally": 4934,
      "ĠFrank": 4935,
      "Ġstrategy": 4936,
      "Ġconcerns": 4937,
      "ĠWil": 4938,
      "Ġtraffic": 4939,
      "Ġthus": 4940,
      "otted": 4941,
      "arliam": 4942,
      "Ġdownload": 4943,
      "Ġded": 4944,
      "Ġvan": 4945,
      "Ġdouble": 4946,
      "bow": 4947,
      "ortunately": 4948,
      "Ġpocket": 4949,
      "Ġlin": 4950,
      "ĠEU": 4951,
      "Ġstre": 4952,
      "Ġdevices": 4953,
      "Ġeasier": 4954,
      "ĠCommittee": 4955,
      "illa": 4956,
      "Ġmad": 4957,
      "Ġgrant": 4958,
      "Ġinstruct": 4959,
      "ference": 4960,
      "eless": 4961,
      "ĠJapanese": 4962,
      "ĠSince": 4963,
      "ipment": 4964,
      "Ġpolicies": 4965,
      "Ġsteps": 4966,
      "Ġder": 4967,
      "uries": 4968,
      "Ġneighb": 4969,
      "night": 4970,
      "Ġproposed": 4971,
      "ĠLike": 4972,
      "gu": 4973,
      "Sure": 4974,
      "ĠCome": 4975,
      "ait": 4976,
      "Ġbenefit": 4977,
      "Ġblow": 4978,
      "Ġsites": 4979,
      "Ġmax": 4980,
      "Ġtend": 4981,
      "Ġhus": 4982,
      "Ġfunding": 4983,
      "Ġresidents": 4984,
      "Ġbecomes": 4985,
      "IL": 4986,
      "ĠJill": 4987,
      "NA": 4988,
      "ula": 4989,
      "Ġjudge": 4990,
      "ato": 4991,
      "Ġwal": 4992,
      "arliament": 4993,
      "Ġpropos": 4994,
      "ĠPress": 4995,
      "Ġhorse": 4996,
      "isf": 4997,
      "Ġposted": 4998,
      "la": 4999,
      "ĠSyria": 5000,
      "wers": 5001,
      "Ġmilk": 5002,
      "ipping": 5003,
      "Ġexplain": 5004,
      "Ġguard": 5005,
      "Ġwings": 5006,
      "Ġremained": 5007,
      "Ġcharges": 5008,
      "Ġinitial": 5009,
      "ĠArmy": 5010,
      "ĠDes": 5011,
      "Ġhappening": 5012,
      "Ġcommit": 5013,
      "roc": 5014,
      "Ġvalues": 5015,
      "ĠFrancis": 5016,
      "udd": 5017,
      "These": 5018,
      "Ġprincess": 5019,
      "ĠAssociation": 5020,
      "works": 5021,
      "Ġopinion": 5022,
      "ĠAP": 5023,
      "Ġarr": 5024,
      "estic": 5025,
      "ĠGame": 5026,
      "mas": 5027,
      "ĠMont": 5028,
      "icine": 5029,
      "soft": 5030,
      "Ġhomes": 5031,
      "Ġshape": 5032,
      "ĠTwo": 5033,
      "ĠOut": 5034,
      "Ġsetting": 5035,
      "âĢ¢": 5036,
      "ĠOffice": 5037,
      "Ġintroduced": 5038,
      "raz": 5039,
      "Ġwise": 5040,
      "nic": 5041,
      "According": 5042,
      "Ġtrial": 5043,
      "Ġelectric": 5044,
      "Ġinvestment": 5045,
      "Ġnewsp": 5046,
      "istics": 5047,
      "apers": 5048,
      "oices": 5049,
      "Ġpil": 5050,
      "Ġtouc": 5051,
      "Ġplays": 5052,
      "Ġauthorities": 5053,
      "under": 5054,
      "Ġfuel": 5055,
      "ĠWall": 5056,
      "ĠToday": 5057,
      "ĠGroup": 5058,
      "Ġstarts": 5059,
      "Ġ90": 5060,
      "Ġpray": 5061,
      "ront": 5062,
      "Ġadvantage": 5063,
      "ĠÐ": 5064,
      "Ġrecorded": 5065,
      "ĠFound": 5066,
      "Ġfourth": 5067,
      "Ġpair": 5068,
      "Im": 5069,
      "ĠCollege": 5070,
      "ĠGood": 5071,
      "Ġsequ": 5072,
      "Ġdirection": 5073,
      "ya": 5074,
      "Ġdisease": 5075,
      "ĠHen": 5076,
      "Ġsharing": 5077,
      "Ġworse": 5078,
      "ishes": 5079,
      "Ġ2000": 5080,
      "isted": 5081,
      "Hi": 5082,
      "âĢĿ,": 5083,
      "Ġcore": 5084,
      "Ġge": 5085,
      "verse": 5086,
      "Ġplanning": 5087,
      "Ġgrab": 5088,
      "hol": 5089,
      "Ġmale": 5090,
      "Ġsupply": 5091,
      "Ġtransport": 5092,
      "Ġlock": 5093,
      "ker": 5094,
      "Ġproviding": 5095,
      "ĠThomas": 5096,
      "Ġnotes": 5097,
      "Ġstood": 5098,
      "Ġfold": 5099,
      "Ġreduce": 5100,
      "Ġnegot": 5101,
      "36": 5102,
      "Ġspokes": 5103,
      "Ġcrew": 5104,
      "Ġsupported": 5105,
      "Ġbackground": 5106,
      "isa": 5107,
      "Ġcompleted": 5108,
      "Ġpurs": 5109,
      "ST": 5110,
      "Ġannual": 5111,
      "Ġvariety": 5112,
      "ĠNor": 5113,
      "Ġoperation": 5114,
      "arn": 5115,
      "Ġdefend": 5116,
      "Ġcateg": 5117,
      "Ġconstant": 5118,
      "Ġunderst": 5119,
      "acity": 5120,
      "SA": 5121,
      "Ġwid": 5122,
      "Ġ70": 5123,
      "Ġtwins": 5124,
      ".'": 5125,
      "ada": 5126,
      "Ġstring": 5127,
      "ĠJer": 5128,
      "onom": 5129,
      "Ġmobile": 5130,
      "ĠAtt": 5131,
      "Ġtheory": 5132,
      "ĠMicro": 5133,
      "Ġshall": 5134,
      "Ġkm": 5135,
      "ĠDaddy": 5136,
      "semb": 5137,
      "BA": 5138,
      "do": 5139,
      "Ġaspect": 5140,
      "Ġnose": 5141,
      "Ġresearchers": 5142,
      "ogether": 5143,
      "Ġexisting": 5144,
      "ĠCarol": 5145,
      "Ġlimit": 5146,
      "Ġconfirmed": 5147,
      "Ġexploring": 5148,
      "Ġmotor": 5149,
      "Ġcolle": 5150,
      "alse": 5151,
      "ulate": 5152,
      "Ġdollars": 5153,
      "Ġextremely": 5154,
      "Ġbread": 5155,
      "Ġstress": 5156,
      ".âĢĻ": 5157,
      "ĠStr": 5158,
      "ĠLos": 5159,
      "Ġballoon": 5160,
      "Ġbirthday": 5161,
      "inate": 5162,
      "ĠBur": 5163,
      "gers": 5164,
      "Ġbomb": 5165,
      "Ġattend": 5166,
      "Ġjun": 5167,
      "Ġfixed": 5168,
      "37": 5169,
      "ĠBlue": 5170,
      "Ġempt": 5171,
      "Ġraise": 5172,
      "Ġremoved": 5173,
      "Ġborder": 5174,
      "atically": 5175,
      "Ġcarr": 5176,
      "formation": 5177,
      "Ġequipment": 5178,
      "can": 5179,
      "Ġstock": 5180,
      "Ġspring": 5181,
      "Ġtim": 5182,
      "ĠCle": 5183,
      "Ġlone": 5184,
      "Ġfaith": 5185,
      "ĠJones": 5186,
      "Ġpra": 5187,
      "Ġmassive": 5188,
      "500": 5189,
      "Ġadvice": 5190,
      "aks": 5191,
      "ĠCanadian": 5192,
      "Ġdefinitely": 5193,
      "Ġlit": 5194,
      "Ġgirls": 5195,
      "itar": 5196,
      "ĠAfrica": 5197,
      "coming": 5198,
      "Ġcheese": 5199,
      "Ġknowing": 5200,
      "Ġtaste": 5201,
      "CC": 5202,
      "ĠInstitute": 5203,
      "Ġkeeping": 5204,
      "Ġorange": 5205,
      "agement": 5206,
      "Ġbat": 5207,
      "ĠVirgin": 5208,
      "Ġassum": 5209,
      "Ġheat": 5210,
      "Ġtask": 5211,
      "Ġ2004": 5212,
      "Ġcash": 5213,
      "Ġmir": 5214,
      "Ġelements": 5215,
      "ĠFinally": 5216,
      "38": 5217,
      "Ġnap": 5218,
      "32": 5219,
      "ifying": 5220,
      "Ġtruly": 5221,
      "Ġunit": 5222,
      "mar": 5223,
      "Ġedge": 5224,
      "zen": 5225,
      "Ġreject": 5226,
      "Con": 5227,
      "However": 5228,
      "Ġsem": 5229,
      "Ġfruit": 5230,
      "ĠStep": 5231,
      "Ġnegative": 5232,
      "ĠFox": 5233,
      "Ġmentioned": 5234,
      "Ġlucky": 5235,
      "Ġminister": 5236,
      "Ġissued": 5237,
      "ĠHol": 5238,
      "Ġminute": 5239,
      "Ġbusinesses": 5240,
      "Ġtalent": 5241,
      "Ġassault": 5242,
      "Ġsmooth": 5243,
      "ĠInter": 5244,
      "annel": 5245,
      "arant": 5246,
      "Ġdemocr": 5247,
      "Ġplanet": 5248,
      "iliar": 5249,
      "Ġsolid": 5250,
      "Ġlaunched": 5251,
      "Ġdolls": 5252,
      "Our": 5253,
      "Ġchick": 5254,
      "Ġcomfortable": 5255,
      "kins": 5256,
      "34": 5257,
      "ĠInstead": 5258,
      "Ġinsurance": 5259,
      "Ġsports": 5260,
      "ĠAdd": 5261,
      "ĠChris": 5262,
      "ĠBank": 5263,
      "win": 5264,
      "Ġoccup": 5265,
      "ĠLiber": 5266,
      "ocal": 5267,
      "Ġstrateg": 5268,
      "Ġthanks": 5269,
      "Ġdebt": 5270,
      "ribute": 5271,
      "Ġadvoc": 5272,
      "erous": 5273,
      "uke": 5274,
      "Ġtreasure": 5275,
      "Ġinternet": 5276,
      "ram": 5277,
      "Ġplanned": 5278,
      "ĠWindows": 5279,
      "ĠRock": 5280,
      "ĠSal": 5281,
      "andon": 5282,
      "abin": 5283,
      "ros": 5284,
      "OL": 5285,
      "Ġhearing": 5286,
      "Ġrocks": 5287,
      "Ġbridge": 5288,
      "oul": 5289,
      "Ġdepartment": 5290,
      "rie": 5291,
      "Ġeleph": 5292,
      "Ġviews": 5293,
      "no": 5294,
      "Ġopposition": 5295,
      "Ġ%": 5296,
      "ĠTre": 5297,
      "Ġarrested": 5298,
      "Ġfairy": 5299,
      "ĠRichard": 5300,
      "ĠService": 5301,
      "ĠSur": 5302,
      "Ġphotos": 5303,
      "eline": 5304,
      "Ġleadership": 5305,
      "icians": 5306,
      "ĠRom": 5307,
      "Ġfavour": 5308,
      "gen": 5309,
      "igan": 5310,
      "Ġenforce": 5311,
      "ĠBritain": 5312,
      "Ġgain": 5313,
      "Ġhusband": 5314,
      "Ġpic": 5315,
      "Ġcommunities": 5316,
      "ĠFore": 5317,
      "Ġfence": 5318,
      "ĠSil": 5319,
      "ĠRoad": 5320,
      "resp": 5321,
      "ĠIr": 5322,
      "Ġrelie": 5323,
      "adium": 5324,
      "BS": 5325,
      "uate": 5326,
      "rible": 5327,
      "PS": 5328,
      "ĠBush": 5329,
      "Ġveget": 5330,
      "ĠJeff": 5331,
      "Ġbottle": 5332,
      "Ġing": 5333,
      "lor": 5334,
      "itect": 5335,
      "Ġfif": 5336,
      "Ġallowing": 5337,
      "Ġblanket": 5338,
      "ĠDiv": 5339,
      "Ġtrend": 5340,
      "tained": 5341,
      "ronic": 5342,
      "Ġmetal": 5343,
      "point": 5344,
      "ĠProf": 5345,
      "Ġdie": 5346,
      "ĠTy": 5347,
      "Ġflo": 5348,
      "Ġrepeated": 5349,
      "Ã¡": 5350,
      "Ġsymb": 5351,
      "ĠLee": 5352,
      "actions": 5353,
      "PA": 5354,
      "Advertisement": 5355,
      "Ġrefused": 5356,
      "Ġclick": 5357,
      "Ġcas": 5358,
      "Ġaccur": 5359,
      "Ġpresence": 5360,
      "Ġcontrovers": 5361,
      "Ġassess": 5362,
      "oms": 5363,
      "know": 5364,
      "Ġhundreds": 5365,
      "ĠWhe": 5366,
      "Ġdism": 5367,
      "Ġestablish": 5368,
      "ĠAM": 5369,
      "Ġsuppl": 5370,
      "Ġappropri": 5371,
      "Ġocean": 5372,
      "ĠRem": 5373,
      "van": 5374,
      "Ġwest": 5375,
      "ĠPre": 5376,
      "ĠJustice": 5377,
      "Ġprefer": 5378,
      "Ġhandle": 5379,
      "39": 5380,
      "Ġcompar": 5381,
      "Ġlabor": 5382,
      "ĠSun": 5383,
      "Ġbelief": 5384,
      "Ġcra": 5385,
      "Ġfort": 5386,
      "ĠLouis": 5387,
      "Ġannounce": 5388,
      "Ġnor": 5389,
      "Ġdocuments": 5390,
      "agn": 5391,
      "Ġcrowd": 5392,
      "Ġaircraft": 5393,
      "Ġveter": 5394,
      "Ġsust": 5395,
      "estival": 5396,
      "arks": 5397,
      "ĠJimmy": 5398,
      "Ġapprec": 5399,
      "friend": 5400,
      "Ġnest": 5401,
      "Ġstone": 5402,
      "Ġadventures": 5403,
      "ĠJud": 5404,
      "Ġafford": 5405,
      "Ġweather": 5406,
      "Ġtesting": 5407,
      "Ġevening": 5408,
      "Well": 5409,
      "osure": 5410,
      "iger": 5411,
      "Ġfant": 5412,
      "Ġunlike": 5413,
      "ey": 5414,
      "Ġcells": 5415,
      "ka": 5416,
      "rd": 5417,
      "ĠTHE": 5418,
      "Ġunits": 5419,
      "Ġvs": 5420,
      "ictions": 5421,
      "bre": 5422,
      "ĠYes": 5423,
      "ĠAustralian": 5424,
      "ĠAngeles": 5425,
      "pective": 5426,
      "Ġswe": 5427,
      "Ġloves": 5428,
      "ĠAfrican": 5429,
      "aped": 5430,
      "Ġtherefore": 5431,
      "75": 5432,
      "ĠLib": 5433,
      "Ġsear": 5434,
      "Ġeast": 5435,
      "Ġperformed": 5436,
      "Ġpal": 5437,
      "oted": 5438,
      "cont": 5439,
      "odies": 5440,
      "Ġsides": 5441,
      "noon": 5442,
      "uana": 5443,
      "add": 5444,
      "ĠSecurity": 5445,
      "Ġsang": 5446,
      "wr": 5447,
      "Ġboss": 5448,
      "ashion": 5449,
      "Ġconsequ": 5450,
      "Ġru": 5451,
      "ĠPC": 5452,
      "ĠDet": 5453,
      "ĠUnder": 5454,
      "Ġarmy": 5455,
      "ĠSqu": 5456,
      "ĠSl": 5457,
      "oop": 5458,
      "Ġtransl": 5459,
      "Ġunderstood": 5460,
      "kr": 5461,
      "Ġapart": 5462,
      "ĠLab": 5463,
      "going": 5464,
      "Ġapple": 5465,
      "lder": 5466,
      "ĠMur": 5467,
      "Ġinjury": 5468,
      "Ġmodels": 5469,
      "Ġrequires": 5470,
      "but": 5471,
      "place": 5472,
      "Ġcommittee": 5473,
      "Ġregist": 5474,
      "ĠPM": 5475,
      "ĠAtlant": 5476,
      "Ġtries": 5477,
      "Ġboys": 5478,
      "porary": 5479,
      "Ġsuc": 5480,
      "Mr": 5481,
      "Ġgraph": 5482,
      "Ġshapes": 5483,
      "ĠTra": 5484,
      "ĠFred": 5485,
      "Ġrail": 5486,
      "Ġlargely": 5487,
      "Ġ45": 5488,
      "ris": 5489,
      "ribe": 5490,
      "Ġ2018": 5491,
      "Ġdoubt": 5492,
      "ĠAlso": 5493,
      "ipl": 5494,
      "Ġhelpful": 5495,
      "ĠTime": 5496,
      "Ġcancer": 5497,
      "Ġtaught": 5498,
      "Ġcere": 5499,
      "Ġempty": 5500,
      "rick": 5501,
      "rant": 5502,
      "Ġfocused": 5503,
      "ĠCharl": 5504,
      "Ġconclud": 5505,
      "ĠMer": 5506,
      "Ġseconds": 5507,
      "Ġmarried": 5508,
      "ingly": 5509,
      "ĠJes": 5510,
      "Ġcommission": 5511,
      "mm": 5512,
      "lete": 5513,
      "Ġswings": 5514,
      "ĠUN": 5515,
      "ias": 5516,
      "Ġprotection": 5517,
      "Ġplate": 5518,
      "AA": 5519,
      "Ġphil": 5520,
      "ĠMartin": 5521,
      "isation": 5522,
      "Ġpartner": 5523,
      "ĠPalest": 5524,
      "uits": 5525,
      "Ġprotest": 5526,
      "Ġinstance": 5527,
      "Ġcrack": 5528,
      "ario": 5529,
      "ossible": 5530,
      "Ġcoverage": 5531,
      "leg": 5532,
      "Ġrid": 5533,
      "Ġdegree": 5534,
      "ĠKorea": 5535,
      "Ġod": 5536,
      "Ġcalc": 5537,
      "Ġentirely": 5538,
      "Ġwriter": 5539,
      "Ġmillions": 5540,
      "Ġsch": 5541,
      "Ġsoldiers": 5542,
      "Ġslightly": 5543,
      "Ġwondered": 5544,
      "Ġcoff": 5545,
      "ĠNFL": 5546,
      "ship": 5547,
      "Ġsoup": 5548,
      "Ġjuice": 5549,
      "Ġthick": 5550,
      "ĠGovernment": 5551,
      "Ġwitness": 5552,
      "ĠCamp": 5553,
      "cher": 5554,
      "ĠSub": 5555,
      "ores": 5556,
      "Ġcray": 5557,
      "ĠTer": 5558,
      "Ġconcerned": 5559,
      "Ġcharged": 5560,
      "Ġnone": 5561,
      "Ġpresented": 5562,
      "Ġ500": 5563,
      "Ġlegislation": 5564,
      "ijuana": 5565,
      "eration": 5566,
      "Ġdecisions": 5567,
      "ym": 5568,
      "ournal": 5569,
      "Ġconnection": 5570,
      "ĠSing": 5571,
      "Ġtag": 5572,
      "ĠEnd": 5573,
      "ĠBet": 5574,
      "Ġflight": 5575,
      "ĠHist": 5576,
      "Ġgeneration": 5577,
      "Ġcoast": 5578,
      "pet": 5579,
      "ĠHillary": 5580,
      "gn": 5581,
      "ĠWeb": 5582,
      "Ġafternoon": 5583,
      "Ġoriginally": 5584,
      "Ġpurple": 5585,
      "Ġbee": 5586,
      "ĠSee": 5587,
      "imal": 5588,
      "Ġshook": 5589,
      "Ġinnov": 5590,
      "ĠFollow": 5591,
      "Ġcontext": 5592,
      "aser": 5593,
      "Ġsail": 5594,
      "Ġpuzz": 5595,
      "Ġpill": 5596,
      "EM": 5597,
      "Ġchart": 5598,
      "isher": 5599,
      "ĠSpr": 5600,
      "ĠMexico": 5601,
      "Ġresc": 5602,
      "Please": 5603,
      "Ġselling": 5604,
      "azon": 5605,
      "what": 5606,
      "Ġmagazine": 5607,
      "Ġargument": 5608,
      "rad": 5609,
      "Ġpackage": 5610,
      "Ġrobot": 5611,
      "Ġclapped": 5612,
      "Ġscientists": 5613,
      "htt": 5614,
      "Ġteach": 5615,
      "Ġprepared": 5616,
      "erences": 5617,
      "Ġexclus": 5618,
      "Ġbatt": 5619,
      "Ġmixed": 5620,
      "Ġuniversity": 5621,
      "ĠResearch": 5622,
      "Ġvictims": 5623,
      "ĠLittle": 5624,
      "Ġlonely": 5625,
      "Ġcute": 5626,
      "how": 5627,
      "ĠCentral": 5628,
      "________": 5629,
      "Ġworst": 5630,
      "Ġfunds": 5631,
      "Ġtouched": 5632,
      "Ġancient": 5633,
      "aven": 5634,
      "Ġgather": 5635,
      "Ġaccused": 5636,
      "ĠJose": 5637,
      "ocolate": 5638,
      "ception": 5639,
      "Ġdogs": 5640,
      "lig": 5641,
      "FC": 5642,
      "Ġpages": 5643,
      "Ġunus": 5644,
      "Ġdeter": 5645,
      "Ġdecor": 5646,
      "Ġpurchase": 5647,
      "Ġhidden": 5648,
      "andy": 5649,
      "TC": 5650,
      "Ġ2003": 5651,
      "ĠSol": 5652,
      "Ġgrown": 5653,
      "Ġscript": 5654,
      "ĠWho": 5655,
      "Ġcheered": 5656,
      "DA": 5657,
      "Ġton": 5658,
      "Ġjar": 5659,
      "Ġotherwise": 5660,
      "Ġdrugs": 5661,
      "Ġdecade": 5662,
      "Hey": 5663,
      "rary": 5664,
      "ĠEmma": 5665,
      "assed": 5666,
      "which": 5667,
      "ella": 5668,
      "Ġpin": 5669,
      "ĠElect": 5670,
      "Ġsquare": 5671,
      "Ġordered": 5672,
      "icon": 5673,
      "Ġtomorrow": 5674,
      "Ġswimming": 5675,
      "Ġroute": 5676,
      "Ġappearance": 5677,
      "Ġune": 5678,
      "sen": 5679,
      "Ġdebut": 5680,
      "Ġcow": 5681,
      "ĠAN": 5682,
      "Ġillegal": 5683,
      "ĠDen": 5684,
      "Ġfigures": 5685,
      "Ġexpert": 5686,
      "Ġteeth": 5687,
      "Ġimagine": 5688,
      "Ġidentified": 5689,
      "Ġintended": 5690,
      "ĠBook": 5691,
      "uable": 5692,
      "Ġlegs": 5693,
      "ĠHel": 5694,
      "Ġrelatively": 5695,
      "enses": 5696,
      "Ġnoises": 5697,
      "cious": 5698,
      "Ġforms": 5699,
      "Ġhouses": 5700,
      "Ġneighborhood": 5701,
      "Ġapply": 5702,
      "ource": 5703,
      "pir": 5704,
      "ĠJewish": 5705,
      "Bl": 5706,
      "hens": 5707,
      "andom": 5708,
      "Ġfilms": 5709,
      "44": 5710,
      "ĠInside": 5711,
      "ĠSup": 5712,
      "Ġmaster": 5713,
      "Ġsatisf": 5714,
      "Ġwhist": 5715,
      "ĠPublic": 5716,
      "Ġconsult": 5717,
      "Ġdiscussion": 5718,
      "Ġinterests": 5719,
      "Ġearn": 5720,
      "Ġtroops": 5721,
      "Get": 5722,
      "SP": 5723,
      "iser": 5724,
      "Ġremove": 5725,
      "ĠFree": 5726,
      "ava": 5727,
      "Ġacadem": 5728,
      "Ġmud": 5729,
      "ĠBit": 5730,
      "Ġlibrary": 5731,
      "RA": 5732,
      "oston": 5733,
      "Ġtrail": 5734,
      "Ġentered": 5735,
      "ĠTeam": 5736,
      "lets": 5737,
      "Ġorganizations": 5738,
      "Ġexchange": 5739,
      "orage": 5740,
      "Ġmurder": 5741,
      "osen": 5742,
      "host": 5743,
      "ĠFire": 5744,
      "Ġsubsc": 5745,
      "Ġmountain": 5746,
      "issions": 5747,
      "Ġterrit": 5748,
      "Ġregarding": 5749,
      "ĠBoth": 5750,
      "Ġmeasures": 5751,
      "ĠBow": 5752,
      "Ġmonkey": 5753,
      "Ġstrike": 5754,
      "Ġhall": 5755,
      "rav": 5756,
      "GB": 5757,
      "Ġbackyard": 5758,
      "ilty": 5759,
      "ulations": 5760,
      "icing": 5761,
      "Ġcommitted": 5762,
      "Ġcandidates": 5763,
      "Ġspeaking": 5764,
      "ĠSpec": 5765,
      "Ġconversation": 5766,
      "Ġsale": 5767,
      "65": 5768,
      "illing": 5769,
      "Ġsport": 5770,
      "Ġmistake": 5771,
      "tw": 5772,
      "Ġcave": 5773,
      "Ġfiles": 5774,
      "!âĢĿ": 5775,
      "Ġswitch": 5776,
      "Ġ32": 5777,
      "Ġapplications": 5778,
      "Ġcircum": 5779,
      "Ġiniti": 5780,
      "ĠLat": 5781,
      "ih": 5782,
      "Ġrestaurant": 5783,
      "ĠBus": 5784,
      "Ġfalse": 5785,
      "Ġspect": 5786,
      "Ġlad": 5787,
      "ĠMicrosoft": 5788,
      "Ġdiss": 5789,
      "Ġwinter": 5790,
      "ĠBest": 5791,
      "Ġtwice": 5792,
      "Ġbuildings": 5793,
      "Ġ2001": 5794,
      "ĠDistrict": 5795,
      "Ġguns": 5796,
      "Good": 5797,
      "Ġaccepted": 5798,
      "ĠLast": 5799,
      "Ġstandards": 5800,
      "Ġshr": 5801,
      "ghan": 5802,
      "Ġsurvey": 5803,
      "Ġdiscover": 5804,
      "Ġholds": 5805,
      "Ġexcell": 5806,
      "Ġsan": 5807,
      "Ġsupporters": 5808,
      "ĠVirginia": 5809,
      "Ġcalm": 5810,
      "Ġjustice": 5811,
      "Ġsecure": 5812,
      "Ġhoney": 5813,
      "Ġdelight": 5814,
      "Ġorganized": 5815,
      "Ġgay": 5816,
      "pa": 5817,
      "Ġwoke": 5818,
      "Ġbelieves": 5819,
      "mail": 5820,
      "ĠIts": 5821,
      "Ġupdate": 5822,
      "ĠSometimes": 5823,
      "oons": 5824,
      "Ġfailure": 5825,
      "Ġhugs": 5826,
      "Ġschedul": 5827,
      "Ġsucceed": 5828,
      "ĠChristmas": 5829,
      "onym": 5830,
      "ĠMass": 5831,
      "ĠSant": 5832,
      "ĠSoon": 5833,
      "Ġflood": 5834,
      "Ġfrustr": 5835,
      "ĠWin": 5836,
      "Ġcapacity": 5837,
      "Ġindic": 5838,
      "Ġdeveloping": 5839,
      "Ġestimated": 5840,
      "Ġce": 5841,
      "Ġowl": 5842,
      "ĠKim": 5843,
      "ixt": 5844,
      "ader": 5845,
      "ses": 5846,
      "uggle": 5847,
      "Ġkinds": 5848,
      "ĠJon": 5849,
      "Ġlaughing": 5850,
      "pm": 5851,
      "Ġoperating": 5852,
      "Ġapprox": 5853,
      "Ġchanging": 5854,
      "ĠCath": 5855,
      "Ġescape": 5856,
      "Ġhotel": 5857,
      "Ġfamiliar": 5858,
      "gypt": 5859,
      "hus": 5860,
      "Ġtea": 5861,
      "Ġembarr": 5862,
      "CH": 5863,
      "Ġconservative": 5864,
      "Ġremaining": 5865,
      "ĠJul": 5866,
      "ĠMem": 5867,
      "Ġheav": 5868,
      "Ġhousing": 5869,
      "Ġpossibly": 5870,
      "Ġalternative": 5871,
      "ups": 5872,
      "ĠRyan": 5873,
      "Ġchose": 5874,
      "Ġbanks": 5875,
      "ache": 5876,
      "Ġsugar": 5877,
      "Ġidentity": 5878,
      "mit": 5879,
      "ĠSystem": 5880,
      "ushed": 5881,
      "ĠMel": 5882,
      "ivered": 5883,
      "isp": 5884,
      "Ġwhenever": 5885,
      "Ġsaved": 5886,
      "Ġlosing": 5887,
      "95": 5888,
      "Ġbringing": 5889,
      "eah": 5890,
      "Americ": 5891,
      "Ġspotted": 5892,
      "aren": 5893,
      "ĠLeg": 5894,
      "pret": 5895,
      "Ġharder": 5896,
      "atures": 5897,
      "Ġrapid": 5898,
      "ĠPlan": 5899,
      "Ġadjust": 5900,
      "48": 5901,
      "aughty": 5902,
      "Ġscored": 5903,
      "ĠIsraeli": 5904,
      "wing": 5905,
      "Ġmental": 5906,
      "ION": 5907,
      "Ġsuggests": 5908,
      "ĠMount": 5909,
      "oral": 5910,
      "Ġrub": 5911,
      "Ġmaterials": 5912,
      "Ġexperienced": 5913,
      "ĠIslamic": 5914,
      "Ġoffering": 5915,
      "rier": 5916,
      "athered": 5917,
      "See": 5918,
      "ĠEach": 5919,
      "ĠIN": 5920,
      "Ġsubsequ": 5921,
      "oured": 5922,
      "Ġacknow": 5923,
      "âĢĺ": 5924,
      "Ġenvironmental": 5925,
      "with": 5926,
      "Ġguitar": 5927,
      "keep": 5928,
      "Ġsigns": 5929,
      "Ġconfused": 5930,
      "Ġ1990": 5931,
      "Ġfol": 5932,
      "Ġoffensive": 5933,
      "eck": 5934,
      "Ġyouth": 5935,
      "ini": 5936,
      "ructure": 5937,
      "Ġunknown": 5938,
      "ĠOl": 5939,
      "ĠSteve": 5940,
      "Ġflex": 5941,
      "Ġyards": 5942,
      "Ġfinger": 5943,
      "ologies": 5944,
      "ompl": 5945,
      "More": 5946,
      "apping": 5947,
      "Ġsandw": 5948,
      "Ġcraw": 5949,
      "Ġelim": 5950,
      "ĠCEO": 5951,
      "Ġvir": 5952,
      "31": 5953,
      "rist": 5954,
      "hi": 5955,
      "Ġabuse": 5956,
      "Ġdelay": 5957,
      "Ġclin": 5958,
      "ĠAny": 5959,
      "Ġcollabor": 5960,
      "ĠSus": 5961,
      "Ġformed": 5962,
      "Ġending": 5963,
      "antly": 5964,
      "Mia": 5965,
      "ĠClub": 5966,
      "Ġaccidentally": 5967,
      "ynam": 5968,
      "Ġincredible": 5969,
      "ĠHenry": 5970,
      "anche": 5971,
      "IV": 5972,
      "ĠST": 5973,
      "Ġdat": 5974,
      "Ġscientific": 5975,
      "umber": 5976,
      "Ġphilos": 5977,
      "Ġrent": 5978,
      "Ġdepart": 5979,
      "stream": 5980,
      "Ġcarrying": 5981,
      "ĠSupreme": 5982,
      "Ġfollows": 5983,
      "amm": 5984,
      "Ġultimately": 5985,
      "uration": 5986,
      "ĠBoston": 5987,
      "akistan": 5988,
      "Ġconcent": 5989,
      "Ġartist": 5990,
      "Ġmethods": 5991,
      "Ġcheap": 5992,
      "Ġreplaced": 5993,
      "Ġguilty": 5994,
      "Ġmere": 5995,
      "Ġthin": 5996,
      "ĠPac": 5997,
      "auc": 5998,
      "Ġalt": 5999,
      "Ġrelieved": 6000,
      "ĠUSA": 6001,
      "lymp": 6002,
      "Ġproced": 6003,
      "asp": 6004,
      "Ġhumans": 6005,
      "Ġresponsibility": 6006,
      "ĠGrandma": 6007,
      "ĠForce": 6008,
      "Ġfellow": 6009,
      "ĠJackson": 6010,
      "Ġmarkets": 6011,
      "Ġvision": 6012,
      "ĠRad": 6013,
      "outs": 6014,
      "Ġhate": 6015,
      "Ġoccurred": 6016,
      "Ġcolour": 6017,
      "ĠProt": 6018,
      "Ġauthority": 6019,
      "Ġadvance": 6020,
      "Ġlabel": 6021,
      "ĠFoundation": 6022,
      "Ġdrawing": 6023,
      "terday": 6024,
      "elled": 6025,
      "Ġbreath": 6026,
      "Ġsight": 6027,
      "Ġimpossible": 6028,
      "Ġcustomer": 6029,
      "Ġkilling": 6030,
      "Ġknee": 6031,
      "HL": 6032,
      "Ġforth": 6033,
      "Ġnaughty": 6034,
      "Ġguarant": 6035,
      "ĠFBI": 6036,
      "IM": 6037,
      "real": 6038,
      "Ġmut": 6039,
      "Ġopportunities": 6040,
      "Ġanywhere": 6041,
      "Ġwheel": 6042,
      "ĠUkr": 6043,
      "Ġclever": 6044,
      "Ġmaintain": 6045,
      "ena": 6046,
      "Ġath": 6047,
      "Ġelephant": 6048,
      "stein": 6049,
      "ĠCur": 6050,
      "Ġnumerous": 6051,
      "Ð¾": 6052,
      "ita": 6053,
      "anged": 6054,
      "Ġmoon": 6055,
      "Ġunivers": 6056,
      "Ġteaching": 6057,
      "Ġvehicles": 6058,
      "====": 6059,
      "Ġdetermine": 6060,
      "onto": 6061,
      "Ġlovely": 6062,
      "Ġfactors": 6063,
      "Ġsymbol": 6064,
      "Ġdrum": 6065,
      "Ġvideos": 6066,
      "ĠSpe": 6067,
      "upp": 6068,
      "Ġaccounts": 6069,
      "ĠVict": 6070,
      "Ġinternal": 6071,
      "Ġwalls": 6072,
      "Ġtests": 6073,
      "Where": 6074,
      "Ġnewspaper": 6075,
      "ĠBack": 6076,
      "Ġgreatest": 6077,
      "standing": 6078,
      "Ġeager": 6079,
      "Ġwake": 6080,
      "ĠWood": 6081,
      "Ġplenty": 6082,
      "isters": 6083,
      "Ġbucket": 6084,
      "apter": 6085,
      "ĠCarolina": 6086,
      "agues": 6087,
      "Ġcoffee": 6088,
      "Ġmarijuana": 6089,
      "Ġpaying": 6090,
      "Ġris": 6091,
      "ĠChief": 6092,
      "Ġrefuge": 6093,
      "shine": 6094,
      "Ġdrew": 6095,
      "Ġpump": 6096,
      "Ġash": 6097,
      "Ġcreation": 6098,
      "ĠMama": 6099,
      "Ġtalks": 6100,
      "ĠGal": 6101,
      "Ġexercise": 6102,
      "Ġchocolate": 6103,
      "Ġturning": 6104,
      "Ġcoat": 6105,
      "ogue": 6106,
      "Ġrot": 6107,
      "ĠSecretary": 6108,
      "phas": 6109,
      "aws": 6110,
      "ĠEgypt": 6111,
      "Ġrevolution": 6112,
      "Ġmarketing": 6113,
      "aints": 6114,
      "itty": 6115,
      "Ġsplit": 6116,
      "Ġdomestic": 6117,
      "Ġbound": 6118,
      "47": 6119,
      "Ġunless": 6120,
      "Ġcuts": 6121,
      "ĠSanders": 6122,
      "Ġswam": 6123,
      "Ġcontains": 6124,
      "II": 6125,
      "prof": 6126,
      "Ġchallenges": 6127,
      "ĠAv": 6128,
      "ĠAfghan": 6129,
      "Ġrolled": 6130,
      "Ġabsolutely": 6131,
      "Ġenforcement": 6132,
      "Ġconducted": 6133,
      "Ġ2002": 6134,
      "Ġgathered": 6135,
      "Ġpassing": 6136,
      "Ġang": 6137,
      "Ġdefensive": 6138,
      "ĠOlymp": 6139,
      "west": 6140,
      "Ġhasn": 6141,
      "Ġaccompl": 6142,
      "Ġarchitect": 6143,
      "Ġtaxes": 6144,
      "Ġcert": 6145,
      "Ġstretch": 6146,
      "igrants": 6147,
      "Ġreduced": 6148,
      "Ġaggress": 6149,
      "erate": 6150,
      "Ġcrazy": 6151,
      "Ġseeking": 6152,
      "Tw": 6153,
      "Ġdim": 6154,
      "LE": 6155,
      "Ġpositions": 6156,
      "Ġfeatured": 6157,
      "icial": 6158,
      "gment": 6159,
      "55": 6160,
      "da": 6161,
      "ĠParis": 6162,
      "ĠVe": 6163,
      "ĠLife": 6164,
      "equ": 6165,
      "Ġmedicine": 6166,
      "Ġvaluable": 6167,
      "Ġlie": 6168,
      "ĠRel": 6169,
      "Ġclosely": 6170,
      "ĠCompany": 6171,
      "Ġunl": 6172,
      "ĠShow": 6173,
      "season": 6174,
      "essions": 6175,
      "Ġdesk": 6176,
      "Ġhopes": 6177,
      "olved": 6178,
      "Ġwarned": 6179,
      "OW": 6180,
      "inating": 6181,
      "ĠTechn": 6182,
      "Ġdeploy": 6183,
      "Ġfake": 6184,
      "ĠHaw": 6185,
      "oty": 6186,
      "Ġcompetitive": 6187,
      "Ġnegoti": 6188,
      "Ġbell": 6189,
      "icide": 6190,
      "Ġheads": 6191,
      "Ġretail": 6192,
      "oles": 6193,
      "ĠPrime": 6194,
      "Ġweird": 6195,
      "Ġaffected": 6196,
      "Ġtur": 6197,
      "Ġincreasingly": 6198,
      "Ġplus": 6199,
      "uous": 6200,
      "Ġcombined": 6201,
      "ĠSum": 6202,
      "Ġcorporate": 6203,
      "Ġped": 6204,
      "Ġexperts": 6205,
      "01": 6206,
      "Ġclouds": 6207,
      "Ġinitially": 6208,
      "arf": 6209,
      "Ġemergency": 6210,
      "ĠAndroid": 6211,
      "Ġreplace": 6212,
      "wered": 6213,
      "Ġsearched": 6214,
      "Ġincor": 6215,
      "Ġelected": 6216,
      "ĠBoard": 6217,
      "ĠRoman": 6218,
      "ĠBern": 6219,
      "Ġpile": 6220,
      "Ġwire": 6221,
      "Ġchain": 6222,
      "Ġunusual": 6223,
      "Ġchest": 6224,
      "Ġspecifically": 6225,
      "Ġproceed": 6226,
      "ĠMP": 6227,
      "ĠWilliams": 6228,
      "ĠLook": 6229,
      "Ġreward": 6230,
      "ĠFrancisco": 6231,
      "Ġexpans": 6232,
      "phy": 6233,
      "Ġrecru": 6234,
      "Ġmeat": 6235,
      "eb": 6236,
      "onna": 6237,
      "riff": 6238,
      "Ġvul": 6239,
      "unte": 6240,
      "etic": 6241,
      "ĠLake": 6242,
      "Ġsunny": 6243,
      "look": 6244,
      "rency": 6245,
      "rawn": 6246,
      "ĠVer": 6247,
      "Ġjail": 6248,
      "rastructure": 6249,
      "Ġcultural": 6250,
      "Ġargued": 6251,
      "owned": 6252,
      "Ġinstr": 6253,
      "Ġunable": 6254,
      "stances": 6255,
      "ĠJournal": 6256,
      "ĠSocial": 6257,
      "Ġreligion": 6258,
      "ĠFil": 6259,
      "fast": 6260,
      "hand": 6261,
      "Ġstreets": 6262,
      "Ġtank": 6263,
      "Ġcombat": 6264,
      "astern": 6265,
      "Ġrelax": 6266,
      "Ġleads": 6267,
      "Ġimpressive": 6268,
      "Ġpossibility": 6269,
      "Ġlanded": 6270,
      "IG": 6271,
      "Ġhack": 6272,
      "press": 6273,
      "anwhile": 6274,
      "Later": 6275,
      "Ġtourn": 6276,
      "Ġstronger": 6277,
      "Ġcontrast": 6278,
      "Ġtypically": 6279,
      "Ġbroadcast": 6280,
      "Ġpitch": 6281,
      "Ġloyal": 6282,
      "Ġweapon": 6283,
      "Ġfashion": 6284,
      "Ġcoin": 6285,
      "Ġlisted": 6286,
      "Ġera": 6287,
      "NN": 6288,
      "ĠDevelop": 6289,
      "Ġnarr": 6290,
      "49": 6291,
      "ĠAmazon": 6292,
      "ĠPakistan": 6293,
      "Ġwore": 6294,
      "ĠLord": 6295,
      "Ġletters": 6296,
      "Ġsuffered": 6297,
      "ĠOpen": 6298,
      "ĠMiddle": 6299,
      "Ġends": 6300,
      "fall": 6301,
      "IP": 6302,
      "ĠWal": 6303,
      "05": 6304,
      "Ġwaste": 6305,
      "ãĤ": 6306,
      "hab": 6307,
      "hew": 6308,
      "ĠSecond": 6309,
      "Ġmoves": 6310,
      "Ġfiled": 6311,
      "Ġsmiling": 6312,
      "Ġwaves": 6313,
      "olit": 6314,
      "ĠThose": 6315,
      "ĠDirector": 6316,
      "Ġshouldn": 6317,
      "****": 6318,
      "âĢĶâĢĶ": 6319,
      "Ġseasons": 6320,
      "Ġexperiences": 6321,
      "ĠPower": 6322,
      "ns": 6323,
      "Ġmulti": 6324,
      "Ġsets": 6325,
      "Ġexpressed": 6326,
      "Ġdestroyed": 6327,
      "Ġdirt": 6328,
      "ĠRub": 6329,
      "Ġagencies": 6330,
      "Bob": 6331,
      "rell": 6332,
      "Ġprofessor": 6333,
      "Ġsupporting": 6334,
      "Ġsector": 6335,
      "Ġteen": 6336,
      "Ġlights": 6337,
      "Ġvast": 6338,
      "ĠPalestin": 6339,
      "Ġtie": 6340,
      "edy": 6341,
      "Ġsevere": 6342,
      "ĠMos": 6343,
      "ockey": 6344,
      "Ġshirt": 6345,
      "Ġstudio": 6346,
      "gent": 6347,
      "run": 6348,
      "Ġequal": 6349,
      "Ġbush": 6350,
      "Ġchemical": 6351,
      "Ġhello": 6352,
      "ĠCarl": 6353,
      "agged": 6354,
      "Ġships": 6355,
      "Ġmanage": 6356,
      "oviet": 6357,
      "Ġtack": 6358,
      "Ġweren": 6359,
      "ette": 6360,
      "Ġkite": 6361,
      "ĠWork": 6362,
      "Ġtent": 6363,
      "Ġconnected": 6364,
      "Ġpowers": 6365,
      "Ġcentre": 6366,
      "Ġcraft": 6367,
      "ĠOK": 6368,
      "Ġanx": 6369,
      "Ġinvited": 6370,
      "Ġgender": 6371,
      "Ġrainbow": 6372,
      "ĠPut": 6373,
      "Ġwrit": 6374,
      "Ġaid": 6375,
      "Ġcouncil": 6376,
      "ternal": 6377,
      "otic": 6378,
      "ĠMedia": 6379,
      "Cont": 6380,
      "Ġbattery": 6381,
      "Ġspokesman": 6382,
      "Ġuncle": 6383,
      "Ġtrick": 6384,
      "ĠHome": 6385,
      "Ġreference": 6386,
      "Ġ1980": 6387,
      "ÃŃ": 6388,
      "Ġfinds": 6389,
      "Ġske": 6390,
      "related": 6391,
      "ĠSpan": 6392,
      "Ġgate": 6393,
      "Ġconfident": 6394,
      "Ġmort": 6395,
      "TS": 6396,
      "Ġenthus": 6397,
      "Ġapparently": 6398,
      "ĠColor": 6399,
      "angers": 6400,
      "Who": 6401,
      "ĠFederal": 6402,
      "makers": 6403,
      "Ġlawyer": 6404,
      "Ġmatches": 6405,
      "Ġprove": 6406,
      "Ġeval": 6407,
      "Ġerror": 6408,
      "Are": 6409,
      "lyn": 6410,
      "ĠYear": 6411,
      "ĠNY": 6412,
      "Ġfeather": 6413,
      "ĠCharles": 6414,
      "Ġstir": 6415,
      "Ġbrings": 6416,
      "Ġdram": 6417,
      "name": 6418,
      "Ġinvolve": 6419,
      "rid": 6420,
      "ĠProject": 6421,
      "Ġpeaceful": 6422,
      "ĠRose": 6423,
      "ĠLin": 6424,
      "Ġfired": 6425,
      "Ġsignificantly": 6426,
      "aval": 6427,
      "ĠHot": 6428,
      "ĠScience": 6429,
      "Ġconclus": 6430,
      "Ġmovies": 6431,
      "TV": 6432,
      "Ġappropriate": 6433,
      "mond": 6434,
      "appy": 6435,
      "Ġalleg": 6436,
      "osite": 6437,
      "Ġbodies": 6438,
      "ownt": 6439,
      "life": 6440,
      "Ab": 6441,
      "Ġdelivered": 6442,
      "Ġserver": 6443,
      "ĠDou": 6444,
      "Ġenh": 6445,
      "Ġelement": 6446,
      "Ġrose": 6447,
      "ĠGuard": 6448,
      "ributed": 6449,
      "Ġtemperature": 6450,
      "Ġhoping": 6451,
      "pack": 6452,
      "Ġvotes": 6453,
      "Ġowned": 6454,
      "Ġunion": 6455,
      "ãĥ": 6456,
      "Ġbeer": 6457,
      "Ġwidely": 6458,
      "mosp": 6459,
      "Ġsession": 6460,
      "state": 6461,
      "ĠVol": 6462,
      "Ġscream": 6463,
      "sing": 6464,
      "Ġ36": 6465,
      "ĠAnother": 6466,
      "cend": 6467,
      "ĠAri": 6468,
      "Ġhyp": 6469,
      "Ġcabin": 6470,
      "Ġtied": 6471,
      "Ġcorn": 6472,
      "care": 6473,
      "ĠMa": 6474,
      "ĠâĢĻ": 6475,
      "Ġeggs": 6476,
      "nam": 6477,
      "awn": 6478,
      "otten": 6479,
      "Ġfields": 6480,
      "Ġ300": 6481,
      "Ġwrites": 6482,
      "ecution": 6483,
      "ĠLong": 6484,
      "Ġoven": 6485,
      "road": 6486,
      "Go": 6487,
      "itable": 6488,
      "ecutive": 6489,
      "acement": 6490,
      "Ġfrag": 6491,
      "ĠLove": 6492,
      "Ġexhib": 6493,
      "Ġtechnical": 6494,
      "uild": 6495,
      "active": 6496,
      "Ġupgr": 6497,
      "Ġidentify": 6498,
      "uster": 6499,
      "nel": 6500,
      "Ġindeed": 6501,
      "Ġminimum": 6502,
      "ĠWhere": 6503,
      "Ġsubs": 6504,
      "ensions": 6505,
      "ivery": 6506,
      "ĠMichigan": 6507,
      "Ġcarbon": 6508,
      "abilities": 6509,
      "Ġspr": 6510,
      "flow": 6511,
      "Ġroof": 6512,
      "ĠScot": 6513,
      "Ġtreated": 6514,
      "TH": 6515,
      "Ġcolumn": 6516,
      "icket": 6517,
      "ĠDespite": 6518,
      "Ġtweet": 6519,
      "Ġhiding": 6520,
      "Ġmoments": 6521,
      "aze": 6522,
      "ĠRev": 6523,
      "Ġagent": 6524,
      "col": 6525,
      "Ġwing": 6526,
      "ervices": 6527,
      "lands": 6528,
      "Ġbrothers": 6529,
      "Ġsolar": 6530,
      "ĠGOP": 6531,
      "ĠFluffy": 6532,
      "urther": 6533,
      "Ġattorney": 6534,
      "Ġdisappointed": 6535,
      "izza": 6536,
      "Ð°": 6537,
      "ĠDivision": 6538,
      "Ġnerv": 6539,
      "Ġdevelopers": 6540,
      "Ġdeclared": 6541,
      "pire": 6542,
      "ĠToronto": 6543,
      "Pl": 6544,
      "Ġimportance": 6545,
      "Ġimproved": 6546,
      "First": 6547,
      "ĠEnter": 6548,
      "Ġzoom": 6549,
      "Ġstruggle": 6550,
      "Ġapples": 6551,
      "cel": 6552,
      "Ġwithd": 6553,
      "Ġlying": 6554,
      "iped": 6555,
      "oking": 6556,
      "Ġcontest": 6557,
      "Ġsitu": 6558,
      "Ġproposal": 6559,
      "Ġapproved": 6560,
      "Ġborrow": 6561,
      "ĠHy": 6562,
      "Ġspray": 6563,
      "Ġflash": 6564,
      "Ġbegins": 6565,
      "Ġcheer": 6566,
      "Ġadvanced": 6567,
      "Ġmode": 6568,
      "Ġdial": 6569,
      "Ġguide": 6570,
      "64": 6571,
      "Ġourselves": 6572,
      "Ġattempts": 6573,
      "Ġdiet": 6574,
      "].": 6575,
      "ĠSammy": 6576,
      "Ġapolog": 6577,
      "Ġingred": 6578,
      "Ġenemy": 6579,
      "olph": 6580,
      "Ġrope": 6581,
      "Ġsolve": 6582,
      "Ġargue": 6583,
      "Ġexcellent": 6584,
      "Ġzoo": 6585,
      "Ġsac": 6586,
      "Ġcozy": 6587,
      "that": 6588,
      "Ġsunshine": 6589,
      "water": 6590,
      "sters": 6591,
      "Ġinspired": 6592,
      "ĠIre": 6593,
      "ighters": 6594,
      "ĠBoy": 6595,
      "ĠSoviet": 6596,
      "Ġpilot": 6597,
      "free": 6598,
      "respond": 6599,
      "Ġalive": 6600,
      "ittens": 6601,
      "ĠNov": 6602,
      "emon": 6603,
      "Ġthread": 6604,
      "Ġtransform": 6605,
      "Ġfacing": 6606,
      "Ġtransition": 6607,
      "azz": 6608,
      "Ðµ": 6609,
      "alian": 6610,
      "Ġbedroom": 6611,
      "Ġcreature": 6612,
      "idel": 6613,
      "ĠTweet": 6614,
      "ĠEr": 6615,
      "Ġiron": 6616,
      "Ġexperiment": 6617,
      "Ġrealize": 6618,
      "Ġvisited": 6619,
      "anging": 6620,
      "ĠTen": 6621,
      "Ġsym": 6622,
      "Ġpleased": 6623,
      "Ġstands": 6624,
      "Ġmotiv": 6625,
      "ĠGre": 6626,
      "Ġclient": 6627,
      "Ġbrill": 6628,
      "Ġterrible": 6629,
      "Ġmatters": 6630,
      "Ġanyway": 6631,
      "Ġthoughts": 6632,
      "Ġimmigration": 6633,
      "Ġrevenue": 6634,
      "Ġbull": 6635,
      "ules": 6636,
      "Ġelections": 6637,
      "Ġflat": 6638,
      "ĠMusic": 6639,
      "ĠIll": 6640,
      "Read": 6641,
      "ounded": 6642,
      "Last": 6643,
      "Ġprompt": 6644,
      "ighed": 6645,
      "04": 6646,
      "Ġquant": 6647,
      "Ġsmoke": 6648,
      "ĠGen": 6649,
      "arters": 6650,
      "ĠFed": 6651,
      "Ġstorage": 6652,
      "ican": 6653,
      "oma": 6654,
      "78": 6655,
      "Even": 6656,
      "Ġbugs": 6657,
      "ĠHarr": 6658,
      "Ġessential": 6659,
      "Ġemphas": 6660,
      "Ġwra": 6661,
      "rees": 6662,
      "ortion": 6663,
      "ĠOnly": 6664,
      "ĠJesus": 6665,
      "Ġdifferences": 6666,
      "Ġpanel": 6667,
      "ĠForm": 6668,
      "ĠAndrew": 6669,
      "ĠStan": 6670,
      "Ġfaced": 6671,
      "Come": 6672,
      "Ġinfrastructure": 6673,
      "Ġfactor": 6674,
      "Ġvulner": 6675,
      "ĠCast": 6676,
      "Ġgif": 6677,
      "Ġfalling": 6678,
      "Ġjew": 6679,
      "Ġanswered": 6680,
      "laim": 6681,
      "arrow": 6682,
      "Ġlob": 6683,
      "Ġasleep": 6684,
      "osy": 6685,
      "obe": 6686,
      "Ġment": 6687,
      "Ġflav": 6688,
      "Ġec": 6689,
      "Ġconsidering": 6690,
      "Ġapproximately": 6691,
      "Ġselected": 6692,
      "ĠRoyal": 6693,
      "Ġwarning": 6694,
      "urd": 6695,
      "Ġpractices": 6696,
      "Ġleaf": 6697,
      "Ġgently": 6698,
      "Ġrein": 6699,
      "Ġrandom": 6700,
      "Ġearned": 6701,
      "SS": 6702,
      "ampion": 6703,
      "Ġbathroom": 6704,
      "ĠClass": 6705,
      "Ġ\\": 6706,
      "anges": 6707,
      "Ġpredict": 6708,
      "Ġobjects": 6709,
      "uts": 6710,
      "Ġmotion": 6711,
      "Ġreaction": 6712,
      "Ġrecording": 6713,
      "idy": 6714,
      "ca": 6715,
      "inent": 6716,
      "Ġperman": 6717,
      "una": 6718,
      "Ġclasses": 6719,
      "Ġartists": 6720,
      "Ġschol": 6721,
      "ĠEmily": 6722,
      "ĠGeorg": 6723,
      "0000": 6724,
      "acter": 6725,
      "arge": 6726,
      "Ġsomewhere": 6727,
      "cohol": 6728,
      "Ġvoted": 6729,
      "iques": 6730,
      "Ġvalid": 6731,
      "Ġtracks": 6732,
      "Ġdish": 6733,
      "Ġtasty": 6734,
      "Ġpushing": 6735,
      "Ġconfidence": 6736,
      "Ġappeal": 6737,
      "Ġvisual": 6738,
      "Ġyounger": 6739,
      "Ġenorm": 6740,
      "xy": 6741,
      "Ġopposed": 6742,
      "Ġprosecut": 6743,
      "Ġsurve": 6744,
      "Ġmanufacture": 6745,
      "Ġreviews": 6746,
      "ĠOld": 6747,
      "##": 6748,
      "Ġshy": 6749,
      "ĠMu": 6750,
      "Ġjoint": 6751,
      "Ġpercentage": 6752,
      "Ġexplos": 6753,
      "Ġcombination": 6754,
      "Ġshock": 6755,
      "ĠPenn": 6756,
      "iamond": 6757,
      "ĠArch": 6758,
      "Ġinterpret": 6759,
      "amin": 6760,
      "elect": 6761,
      "essor": 6762,
      "Ġren": 6763,
      "Ġconsumers": 6764,
      "Ġmysterious": 6765,
      "Ġcoord": 6766,
      "ĠBefore": 6767,
      "ĠAC": 6768,
      "Ġdivision": 6769,
      "ĠSupp": 6770,
      "Ġsubstant": 6771,
      "ĠDaily": 6772,
      "Ġsnake": 6773,
      "ĠLo": 6774,
      "ala": 6775,
      "ĠJake": 6776,
      "Ġadvert": 6777,
      "Ġtherap": 6778,
      "arry": 6779,
      "Ġpotentially": 6780,
      "top": 6781,
      "pes": 6782,
      "endment": 6783,
      "Ġchicken": 6784,
      "Ġclients": 6785,
      "Ġabandon": 6786,
      "Ġnorthern": 6787,
      "Ġcauses": 6788,
      "ï¿": 6789,
      "Ġtermin": 6790,
      "Ġspoon": 6791,
      "Ġmarch": 6792,
      "upid": 6793,
      "Ġbond": 6794,
      "ĠLisa": 6795,
      "iat": 6796,
      "Ġzone": 6797,
      "Ġoptim": 6798,
      "Ġtape": 6799,
      "Phone": 6800,
      "ĠCare": 6801,
      "Ġacting": 6802,
      "Ġrequirements": 6803,
      "Ġbare": 6804,
      "ĠChampionship": 6805,
      "ikes": 6806,
      "PR": 6807,
      "Ġshining": 6808,
      "ĠBBC": 6809,
      "owed": 6810,
      "Ġrenew": 6811,
      "Ġsnack": 6812,
      "ii": 6813,
      "Ġdismiss": 6814,
      "Ġ38": 6815,
      "Ġcapable": 6816,
      "Ġwash": 6817,
      "Ġseriously": 6818,
      "Ġapplied": 6819,
      "ĠColumb": 6820,
      "uters": 6821,
      "Ġtact": 6822,
      "Ġstruck": 6823,
      "fortunately": 6824,
      "iform": 6825,
      "iences": 6826,
      "Ġsouthern": 6827,
      "ĠFam": 6828,
      "Ġelev": 6829,
      "ricane": 6830,
      "ĠOhio": 6831,
      "Ġdesire": 6832,
      "burg": 6833,
      "orse": 6834,
      "Ġsurprising": 6835,
      "ĠTop": 6836,
      "09": 6837,
      "ĠRon": 6838,
      "Ġtroub": 6839,
      "Ġelder": 6840,
      "abled": 6841,
      "Ġprotected": 6842,
      "eared": 6843,
      "Ġreact": 6844,
      "Ġperfectly": 6845,
      "ĠConn": 6846,
      "Ġreaders": 6847,
      "fficient": 6848,
      "Ġatmosp": 6849,
      "ĠConserv": 6850,
      "LA": 6851,
      "Ġrocket": 6852,
      "Ġprospect": 6853,
      "Ġdecre": 6854,
      "Ġentry": 6855,
      "Ġresident": 6856,
      "Ġauth": 6857,
      "Ġhits": 6858,
      "Ġham": 6859,
      "Ġperspective": 6860,
      "ulf": 6861,
      "ĠFort": 6862,
      "itors": 6863,
      "Ġshift": 6864,
      "ĠValley": 6865,
      "evin": 6866,
      "ĠIreland": 6867,
      "Ġcritics": 6868,
      "ĠHolly": 6869,
      "Ġpicks": 6870,
      "ĠSwed": 6871,
      "ï¿½": 6872,
      "Once": 6873,
      "Ġdirected": 6874,
      "Ġfalls": 6875,
      "Ġselection": 6876,
      "Ġuncom": 6877,
      "Ġgovernments": 6878,
      "ĠSpace": 6879,
      "Ġobserved": 6880,
      "Ġvent": 6881,
      "utch": 6882,
      "Ġbreaking": 6883,
      "ĠHuman": 6884,
      "ĠWater": 6885,
      "ĠCard": 6886,
      "Ġitem": 6887,
      "Ġtheme": 6888,
      "Ġsle": 6889,
      "erves": 6890,
      "Ġresponded": 6891,
      "Ġorders": 6892,
      "ĠAut": 6893,
      "Ġdedicated": 6894,
      "Ġdisag": 6895,
      "ua": 6896,
      "pay": 6897,
      "Ġextended": 6898,
      "88": 6899,
      "Ġbaseball": 6900,
      "Ġjoke": 6901,
      "Ġsack": 6902,
      "Ġcooper": 6903,
      "Ġreferred": 6904,
      "ansas": 6905,
      "Ġlatter": 6906,
      "ilit": 6907,
      "Ġknocked": 6908,
      "46": 6909,
      "Ġpir": 6910,
      "Ġbuying": 6911,
      "Ġplastic": 6912,
      "ĠImages": 6913,
      "Ġspons": 6914,
      "Ġgray": 6915,
      "Ġserving": 6916,
      "Ġalert": 6917,
      "Ġwand": 6918,
      "razil": 6919,
      "sembly": 6920,
      "Ġbeauty": 6921,
      "Ġdetect": 6922,
      "ano": 6923,
      "fe": 6924,
      "Ġjack": 6925,
      "Ġwed": 6926,
      "ĠCat": 6927,
      "anes": 6928,
      "Ġinstitutions": 6929,
      "ani": 6930,
      "ĠRead": 6931,
      "ooked": 6932,
      "Ġeffectively": 6933,
      "ĠChild": 6934,
      "ĠInf": 6935,
      "Ġtow": 6936,
      "ĠRod": 6937,
      "Ġlinks": 6938,
      "Ġcrash": 6939,
      "Ġcircle": 6940,
      "Ġeditor": 6941,
      "Ġinjured": 6942,
      "Ġnervous": 6943,
      "ĠSociety": 6944,
      "Ġmelt": 6945,
      "ideo": 6946,
      "Ġbon": 6947,
      "ĠFar": 6948,
      "Ġlicense": 6949,
      "zer": 6950,
      "ĠSyrian": 6951,
      "Ġhistorical": 6952,
      "ĠDaniel": 6953,
      "Ġneither": 6954,
      "Ġclassic": 6955,
      "Since": 6956,
      "Trump": 6957,
      "Ġnative": 6958,
      "ĠWay": 6959,
      "Photo": 6960,
      "iano": 6961,
      "Ġ1970": 6962,
      "Up": 6963,
      "Ġconstitution": 6964,
      "ĠTour": 6965,
      "istent": 6966,
      "Ġprime": 6967,
      "greg": 6968,
      "Ġexpansion": 6969,
      "Ġpure": 6970,
      "hips": 6971,
      "ĠSpanish": 6972,
      "Ġbrilliant": 6973,
      "Ġ37": 6974,
      "ĠRet": 6975,
      "Ġ33": 6976,
      "Ġintent": 6977,
      "Ġdistribution": 6978,
      "Ġcollected": 6979,
      "class": 6980,
      "Ġscheduled": 6981,
      "Ġruling": 6982,
      "Ġapps": 6983,
      "ĠPen": 6984,
      "Ġdiscussed": 6985,
      "Ġadults": 6986,
      "alty": 6987,
      "zed": 6988,
      "ENT": 6989,
      "ĠFer": 6990,
      "Ġ75": 6991,
      "Ġvoting": 6992,
      "Ġvolunte": 6993,
      "Ġprote": 6994,
      "Ġjumping": 6995,
      "Ġboost": 6996,
      "Ġoccasion": 6997,
      "ruption": 6998,
      "Ġdynam": 6999,
      "Ġdu": 7000,
      "Ã¼": 7001,
      "Ġplot": 7002,
      "DP": 7003,
      "Ġliqu": 7004,
      "Ġbone": 7005,
      "Ġexplains": 7006,
      "Ġque": 7007,
      "athan": 7008,
      "print": 7009,
      "Ġreceiving": 7010,
      "berry": 7011,
      "uddle": 7012,
      "ĠVictor": 7013,
      "Ġpacked": 7014,
      "Ġobviously": 7015,
      "vin": 7016,
      "Ġducks": 7017,
      "Ġscreamed": 7018,
      "asks": 7019,
      "ĠGames": 7020,
      "nergy": 7021,
      "Ġfra": 7022,
      "Ġpainting": 7023,
      "Ġ34": 7024,
      "Ġbutt": 7025,
      "Pe": 7026,
      "Ġfacility": 7027,
      "Ġarticles": 7028,
      "rum": 7029,
      "Ġbrows": 7030,
      "Ġhanded": 7031,
      "Ġsought": 7032,
      "Ġyesterday": 7033,
      "Ġtears": 7034,
      "66": 7035,
      "Ġfasc": 7036,
      "ropical": 7037,
      "esome": 7038,
      "ĠServices": 7039,
      "Ġfeelings": 7040,
      "Ġmaximum": 7041,
      "Ġuniverse": 7042,
      "Ġmessages": 7043,
      "ĠBitcoin": 7044,
      "Ġexamples": 7045,
      "Ġsam": 7046,
      "App": 7047,
      "Ġhousehold": 7048,
      "Ġcookie": 7049,
      "Ġairport": 7050,
      "Ġstores": 7051,
      "Ġ48": 7052,
      "word": 7053,
      "ĠFour": 7054,
      "Ġticket": 7055,
      "omin": 7056,
      "ls": 7057,
      "Ġmal": 7058,
      "gly": 7059,
      "ĠLight": 7060,
      "Ġclock": 7061,
      "Ã³": 7062,
      "Ġwinner": 7063,
      "Ġshore": 7064,
      "ented": 7065,
      "acle": 7066,
      "orable": 7067,
      "OD": 7068,
      "Ġnobody": 7069,
      "Ġdrivers": 7070,
      "Ġversions": 7071,
      "Gr": 7072,
      "Ġcontem": 7073,
      "Ġblew": 7074,
      "Ġprivacy": 7075,
      "Ġproperly": 7076,
      "Ġbasically": 7077,
      "Ġsilver": 7078,
      "ĠWild": 7079,
      "rip": 7080,
      "Ġefficient": 7081,
      "Ġsolutions": 7082,
      "Ġforgive": 7083,
      "ĠAsia": 7084,
      "Ġmand": 7085,
      "Ġcorrespond": 7086,
      "Ġdenied": 7087,
      "Ġcausing": 7088,
      "iency": 7089,
      "Ġfacilities": 7090,
      "Ġheaded": 7091,
      "Ġindustrial": 7092,
      "ĠPrem": 7093,
      "Ġrelationships": 7094,
      "Ġflu": 7095,
      "osis": 7096,
      "MA": 7097,
      "Ġmanner": 7098,
      "Ġschedule": 7099,
      "ĠMic": 7100,
      "Ġadmitted": 7101,
      "ĠBusiness": 7102,
      "Ġglow": 7103,
      "ĠProgram": 7104,
      "orders": 7105,
      "Ġdistinct": 7106,
      "MS": 7107,
      "och": 7108,
      "bed": 7109,
      "Ġongoing": 7110,
      "itement": 7111,
      "Ã¶": 7112,
      "Ġreliable": 7113,
      "ĠTest": 7114,
      "ĠOper": 7115,
      "Ġinjuries": 7116,
      "ĠImage": 7117,
      "Ġtreats": 7118,
      "ĠAcadem": 7119,
      "Ġsav": 7120,
      "Ġusual": 7121,
      "Ġheavily": 7122,
      "TA": 7123,
      "Ġsyn": 7124,
      "ĠPhoto": 7125,
      "ĠCD": 7126,
      "ingu": 7127,
      "Ġdoctors": 7128,
      "Ġvari": 7129,
      "Ġid": 7130,
      "ĠYoung": 7131,
      "inals": 7132,
      "ora": 7133,
      "ĠOF": 7134,
      "vell": 7135,
      "ĠNAS": 7136,
      "Ġdefined": 7137,
      "Ġfrequently": 7138,
      "ĠCru": 7139,
      "ĠDave": 7140,
      "ĠSign": 7141,
      "ĠHarry": 7142,
      "Ġhttps": 7143,
      "Ġwindows": 7144,
      "Ġarmed": 7145,
      "ĠYet": 7146,
      "alls": 7147,
      "mates": 7148,
      "hell": 7149,
      "Ġhighlight": 7150,
      "Qu": 7151,
      "Ġshelf": 7152,
      "Ġsmelled": 7153,
      "Ġathlet": 7154,
      "Ġalongside": 7155,
      "Ġinvent": 7156,
      "Ġtotally": 7157,
      "Ġagents": 7158,
      "ĠIns": 7159,
      "Ġregime": 7160,
      "ĠCam": 7161,
      "hetic": 7162,
      "Ġladder": 7163,
      "ĠCatholic": 7164,
      "Ġgovernor": 7165,
      "Ġenormous": 7166,
      ",'": 7167,
      "Ġspo": 7168,
      "gery": 7169,
      "Ġdust": 7170,
      "oration": 7171,
      "gas": 7172,
      "ĠRos": 7173,
      "ĠTony": 7174,
      "ĠKn": 7175,
      "ĠID": 7176,
      "Ġcouch": 7177,
      "ensity": 7178,
      "ĠCub": 7179,
      "rich": 7180,
      "ĠMot": 7181,
      "resents": 7182,
      "Ġchosen": 7183,
      "Lucy": 7184,
      "Ġmirror": 7185,
      "ĠMen": 7186,
      "Ġbasketball": 7187,
      "Ġrelevant": 7188,
      "Ġupdates": 7189,
      "Another": 7190,
      "eller": 7191,
      "Ġ1999": 7192,
      "Or": 7193,
      "ĠWeek": 7194,
      "Ġrow": 7195,
      "Ġcommunication": 7196,
      "Ġrude": 7197,
      "Ġlistening": 7198,
      "Ġpregn": 7199,
      "Ġdanced": 7200,
      "Ġfranch": 7201,
      "Ġshots": 7202,
      "ĠCy": 7203,
      "aza": 7204,
      "Am": 7205,
      "ĠSky": 7206,
      "ĠLand": 7207,
      "ĠEduc": 7208,
      "ĠOffic": 7209,
      "Ġupper": 7210,
      "Ġcutting": 7211,
      "Ġlinked": 7212,
      "IF": 7213,
      "Ġreporting": 7214,
      "Ġvolume": 7215,
      "ĠMrs": 7216,
      "opy": 7217,
      "ĠDown": 7218,
      "Ġfunctions": 7219,
      "Ġincreases": 7220,
      "Ġconfirm": 7221,
      "Ġload": 7222,
      "Ġproperties": 7223,
      "oh": 7224,
      "Ġgenerous": 7225,
      "Ġdisturb": 7226,
      "PD": 7227,
      "Ġfought": 7228,
      "va": 7229,
      "Ġpassion": 7230,
      "Ġattempted": 7231,
      "Ġfifth": 7232,
      "Ġreput": 7233,
      "Ġdefault": 7234,
      "Ġdepth": 7235,
      "ĠWalk": 7236,
      "Ġfool": 7237,
      "Ġtrig": 7238,
      "08": 7239,
      "power": 7240,
      "Ġfing": 7241,
      "Ġwhistle": 7242,
      "Ind": 7243,
      "77": 7244,
      "adel": 7245,
      "cked": 7246,
      "ĠPan": 7247,
      "oore": 7248,
      "Ġcampus": 7249,
      "ĠBrazil": 7250,
      "Ġspider": 7251,
      "Ġrum": 7252,
      "ĠKingdom": 7253,
      "Ġstatements": 7254,
      "Ġlocations": 7255,
      "ĠMat": 7256,
      "you": 7257,
      "Ġsuffering": 7258,
      "Ġexistence": 7259,
      "Ġsurrounding": 7260,
      "Ġreturns": 7261,
      "ĠAff": 7262,
      "ĠTO": 7263,
      "Ġfrustrated": 7264,
      "Ġexplo": 7265,
      "ĠRam": 7266,
      "Ġbehavi": 7267,
      "Ġeverybody": 7268,
      "Ġprofession": 7269,
      "ĠVan": 7270,
      "Ġcoc": 7271,
      "ĠAT": 7272,
      "Ġpoliticians": 7273,
      "rive": 7274,
      "Ġdelivery": 7275,
      "Ġrising": 7276,
      "Ġdiscl": 7277,
      "ĠWatch": 7278,
      "ierce": 7279,
      "Ġextensive": 7280,
      "Ġcann": 7281,
      "ctor": 7282,
      "long": 7283,
      "ĠPhot": 7284,
      "ĠKh": 7285,
      "Ġscenes": 7286,
      "Ġdeclined": 7287,
      "ĠRE": 7288,
      "Ġwalks": 7289,
      "ĠSea": 7290,
      "Ġcrayons": 7291,
      "alle": 7292,
      "Ġdoors": 7293,
      "Ġlocked": 7294,
      "Ġdatab": 7295,
      "anna": 7296,
      "ventually": 7297,
      "Ġ49": 7298,
      "ĠNavy": 7299,
      "amber": 7300,
      "Ġposts": 7301,
      "Ġacts": 7302,
      "Ġdetailed": 7303,
      "Ġcable": 7304,
      "Ġlift": 7305,
      "ĠBat": 7306,
      "Ġexpression": 7307,
      "Ġresolution": 7308,
      "Image": 7309,
      "OC": 7310,
      "Ġphilosop": 7311,
      "Ġlean": 7312,
      "Rep": 7313,
      "Ġliberal": 7314,
      "ser": 7315,
      "onn": 7316,
      "Ġdefeat": 7317,
      "Ġfacts": 7318,
      "ician": 7319,
      "ĠDie": 7320,
      "avig": 7321,
      "Ġconver": 7322,
      "Ġpit": 7323,
      "Ġstupid": 7324,
      "Ġopposite": 7325,
      "ĠWomen": 7326,
      "Ġcloth": 7327,
      "Ġpointing": 7328,
      "Ġadds": 7329,
      "ĠItalian": 7330,
      "oming": 7331,
      "Ġdreams": 7332,
      "Ġtournament": 7333,
      "Ġspell": 7334,
      "iveness": 7335,
      "UT": 7336,
      "sex": 7337,
      "Ġremote": 7338,
      "Ġsquad": 7339,
      "Ġmole": 7340,
      "cles": 7341,
      "Ġphen": 7342,
      "ĠSports": 7343,
      "ĠHou": 7344,
      "whel": 7345,
      "ĠJenny": 7346,
      "Ġcriticism": 7347,
      "Ġzero": 7348,
      "ador": 7349,
      "Ġrepresents": 7350,
      "encing": 7351,
      "stone": 7352,
      "Ġconsequences": 7353,
      "employ": 7354,
      "Ġadministr": 7355,
      "Ġattacked": 7356,
      "Ġsticks": 7357,
      "ĠDi": 7358,
      "Ġlaid": 7359,
      "Ġteachers": 7360,
      "Pr": 7361,
      "Ġdiagn": 7362,
      "Ġdownt": 7363,
      "Ġwins": 7364,
      "Ġmarked": 7365,
      "Ġhyd": 7366,
      "bel": 7367,
      "Ġcaptured": 7368,
      "aire": 7369,
      "Ġcrown": 7370,
      "Ġoutput": 7371,
      "ĠiPhone": 7372,
      "Ġregional": 7373,
      "Ġobserv": 7374,
      "Ġsheep": 7375,
      "date": 7376,
      "Ġemotional": 7377,
      "Ġbid": 7378,
      "Ġpizza": 7379,
      "Ġfindings": 7380,
      "Ġ?": 7381,
      "ĠPacific": 7382,
      "Ġadapt": 7383,
      "Ġmuseum": 7384,
      "Ġexcitement": 7385,
      "Ġballs": 7386,
      "ĠSnow": 7387,
      "Ġtasted": 7388,
      "otes": 7389,
      "Ġboxes": 7390,
      "rehens": 7391,
      "Tube": 7392,
      "Ġinput": 7393,
      "ographic": 7394,
      "then": 7395,
      "ĠBattle": 7396,
      "ĠBrad": 7397,
      "Ġheight": 7398,
      "Other": 7399,
      "Ġexplan": 7400,
      "Ġevolution": 7401,
      "Ġyield": 7402,
      "()": 7403,
      "lines": 7404,
      "IR": 7405,
      "Ġrecognize": 7406,
      "Ġfavourite": 7407,
      "scape": 7408,
      "ulous": 7409,
      "Ġappoint": 7410,
      "Ġnations": 7411,
      "Ġreportedly": 7412,
      "Ġconcert": 7413,
      "Ã¤": 7414,
      "Ġwine": 7415,
      "olve": 7416,
      "isms": 7417,
      "06": 7418,
      "07": 7419,
      "uan": 7420,
      "ĠJohnny": 7421,
      "Ġrecognized": 7422,
      "Ġcolon": 7423,
      "Ġcycle": 7424,
      "ĠStand": 7425,
      "okes": 7426,
      "Ġpromote": 7427,
      "Ġencourage": 7428,
      "iture": 7429,
      "Ġwestern": 7430,
      "ĠTogether": 7431,
      "Ġholiday": 7432,
      "Ġselfish": 7433,
      "Ġsustain": 7434,
      "Ġtunn": 7435,
      "pected": 7436,
      "aylor": 7437,
      "Ġingredients": 7438,
      "Ġhadn": 7439,
      "Ġdestruct": 7440,
      "ĠSn": 7441,
      "ĠKorean": 7442,
      "iments": 7443,
      "Ġdipl": 7444,
      "Ġcopyright": 7445,
      "Ġfab": 7446,
      "Ġalcohol": 7447,
      "Ġpapers": 7448,
      "Ġroughly": 7449,
      "Ġplayoff": 7450,
      "agan": 7451,
      "ĠPR": 7452,
      "ĠStephen": 7453,
      "iples": 7454,
      "ĠAward": 7455,
      "LS": 7456,
      "Ġconsumer": 7457,
      "unction": 7458,
      "During": 7459,
      "Ġcircumstances": 7460,
      "Ġtech": 7461,
      "Ġconfig": 7462,
      "ĠItaly": 7463,
      "Ġseats": 7464,
      "Ġimpressed": 7465,
      "Ġpayment": 7466,
      "Ġviolent": 7467,
      "Ġsomewhat": 7468,
      "Ġideal": 7469,
      "Ġfairly": 7470,
      "rome": 7471,
      "Ġisol": 7472,
      "Ġlegit": 7473,
      "Ġje": 7474,
      "Ġinvestors": 7475,
      "Ġcrimes": 7476,
      "ĠDC": 7477,
      "boy": 7478,
      "Ġcelebrate": 7479,
      "Ġaccomp": 7480,
      "eman": 7481,
      "Ġshif": 7482,
      "Ġrepair": 7483,
      "ĠSk": 7484,
      "Ġestate": 7485,
      "Ġnecessarily": 7486,
      "anches": 7487,
      "Ġkil": 7488,
      "Ġparticipants": 7489,
      "inations": 7490,
      "weight": 7491,
      "http": 7492,
      "Man": 7493,
      "ĠSouthern": 7494,
      "izz": 7495,
      "----------------": 7496,
      "Ġconsistent": 7497,
      "Ġdiscrim": 7498,
      "uls": 7499,
      "usal": 7500,
      "ĠRights": 7501,
      "rac": 7502,
      "Ġgained": 7503,
      "cons": 7504,
      "Ġpublicly": 7505,
      "ocation": 7506,
      "bar": 7507,
      "inson": 7508,
      "Ġprepare": 7509,
      "Ġacknowled": 7510,
      "Ġgear": 7511,
      "ags": 7512,
      "Ġugly": 7513,
      "Ġlies": 7514,
      "ĠTurkey": 7515,
      "Ġimmediate": 7516,
      "Ġcoins": 7517,
      "ĠNext": 7518,
      "Ġmel": 7519,
      "Ġresulting": 7520,
      "Ġanswers": 7521,
      "Ġsalt": 7522,
      "Ġcounty": 7523,
      "ĠNick": 7524,
      "ĠSeattle": 7525,
      "gar": 7526,
      "Ġpatterns": 7527,
      "Ġuniform": 7528,
      "Ġcruc": 7529,
      "ulture": 7530,
      "Ġsearching": 7531,
      "Ġsnowman": 7532,
      "rate": 7533,
      "Ġauthors": 7534,
      "Ġskill": 7535,
      "amental": 7536,
      "Ġsurf": 7537,
      "Ġurban": 7538,
      "Ġdisappeared": 7539,
      "Ġpermission": 7540,
      "ĠSaud": 7541,
      "ĠNight": 7542,
      "Ġsche": 7543,
      "Ġmusical": 7544,
      "Ġnetworks": 7545,
      "Ġsoil": 7546,
      "Ġopens": 7547,
      "Ġroot": 7548,
      "yers": 7549,
      "Ġdancing": 7550,
      "ĠSeries": 7551,
      "Ġworldwide": 7552,
      "Ġprimarily": 7553,
      "Ġknife": 7554,
      "Ġformat": 7555,
      "ĠReview": 7556,
      "ĠTit": 7557,
      "\":": 7558,
      "Ġsteel": 7559,
      "Ġregulations": 7560,
      "],": 7561,
      "Ġrooms": 7562,
      "iki": 7563,
      "Ġchannel": 7564,
      "ĠColorado": 7565,
      "Ġfancy": 7566,
      "Ġvegetables": 7567,
      "pass": 7568,
      "42": 7569,
      "=\"": 7570,
      "ĠDavis": 7571,
      "ĠAfghanistan": 7572,
      "Ġstack": 7573,
      "Over": 7574,
      "Ġpunish": 7575,
      "Ġpuzzle": 7576,
      "ĠAgain": 7577,
      "ÅĵI": 7578,
      "Although": 7579,
      "Ġchased": 7580,
      "Ġsole": 7581,
      "Ġven": 7582,
      "heast": 7583,
      "AF": 7584,
      "68": 7585,
      "uated": 7586,
      "Ġpatch": 7587,
      "ĠBas": 7588,
      "ĠEconom": 7589,
      "Ġstable": 7590,
      "Ġupdated": 7591,
      "ffect": 7592,
      "Ġpicnic": 7593,
      "Many": 7594,
      "ellect": 7595,
      "ologist": 7596,
      "Ġdeaths": 7597,
      "Ġportion": 7598,
      ",âĢĻ": 7599,
      "Ġplug": 7600,
      "ĠRight": 7601,
      "ĠLabour": 7602,
      "ĠMum": 7603,
      "02": 7604,
      "stal": 7605,
      "Ġessentially": 7606,
      "Ġsimpl": 7607,
      "ĠJews": 7608,
      "ubbed": 7609,
      "roit": 7610,
      "unes": 7611,
      "ĠCross": 7612,
      "otal": 7613,
      "03": 7614,
      "ERS": 7615,
      "Ġdescribe": 7616,
      "Ġkeeps": 7617,
      "Ġmeal": 7618,
      "Ġannouncement": 7619,
      "afe": 7620,
      "Ġcommitment": 7621,
      "Ġprohib": 7622,
      "Ġextent": 7623,
      "Ġcolleagues": 7624,
      "luding": 7625,
      "zona": 7626,
      "ĠRog": 7627,
      "ifications": 7628,
      "Ġordinary": 7629,
      "Ġknock": 7630,
      "Ð¸": 7631,
      "Ġoffense": 7632,
      "98": 7633,
      "Ġfunctional": 7634,
      "Ġdrinking": 7635,
      "ĠHistory": 7636,
      "Their": 7637,
      "level": 7638,
      "Ġdating": 7639,
      "ĠTown": 7640,
      "Ġboring": 7641,
      "Ġdinos": 7642,
      "iated": 7643,
      "enda": 7644,
      "Ġdrawn": 7645,
      "Ġaspects": 7646,
      "ĠWilson": 7647,
      "Ġjungle": 7648,
      "Ġmachines": 7649,
      "Ġrisks": 7650,
      "Ġreporters": 7651,
      "Ġtested": 7652,
      "Ġluck": 7653,
      "Ġwriters": 7654,
      "ĠScotland": 7655,
      "ĠAdam": 7656,
      "Ġgranted": 7657,
      "Ġtightly": 7658,
      "ĠKent": 7659,
      "Ġattended": 7660,
      "ĠGeorgia": 7661,
      "Because": 7662,
      "Ġquarterback": 7663,
      "Ġvice": 7664,
      "ĠJr": 7665,
      "ĠKevin": 7666,
      "Ġentertain": 7667,
      "Ġaside": 7668,
      "Ġretire": 7669,
      "ĠHollywood": 7670,
      "ĠSpecial": 7671,
      "Ġwealthy": 7672,
      "ĠZeal": 7673,
      "Ġhabit": 7674,
      "arming": 7675,
      "Ġpretended": 7676,
      "Ġ1998": 7677,
      "Ġtypical": 7678,
      "ĠEric": 7679,
      "Ġapproval": 7680,
      "Your": 7681,
      "Most": 7682,
      "bec": 7683,
      "Ġemails": 7684,
      "Jim": 7685,
      "unning": 7686,
      "Ġoblig": 7687,
      "Ġbored": 7688,
      "ensus": 7689,
      "En": 7690,
      "Ġawesome": 7691,
      "Ġhardware": 7692,
      "Ġpurposes": 7693,
      "Ġstamp": 7694,
      "ĠGM": 7695,
      "Ġchoices": 7696,
      "awa": 7697,
      "Ġactor": 7698,
      "ĠIrish": 7699,
      "Ġgall": 7700,
      "rated": 7701,
      "American": 7702,
      "ati": 7703,
      "ko": 7704,
      "Ġtargets": 7705,
      "Ġembarrassed": 7706,
      "Follow": 7707,
      "Ġfurry": 7708,
      "Ġresistance": 7709,
      "Ġradical": 7710,
      "ĠRay": 7711,
      "Ġloan": 7712,
      "Soon": 7713,
      "Ġelderly": 7714,
      "Lila": 7715,
      "Ġsending": 7716,
      "pool": 7717,
      "Ġterritory": 7718,
      "Ġdecline": 7719,
      "Ġsuccessfully": 7720,
      "57": 7721,
      "Ġassistance": 7722,
      "Ġregions": 7723,
      "ĠDevelopment": 7724,
      "ĠEnergy": 7725,
      "ĠJersey": 7726,
      "ĠDam": 7727,
      "ĠHom": 7728,
      "Ġembr": 7729,
      "prise": 7730,
      "ĠJoseph": 7731,
      "Ġconven": 7732,
      "ĠNBA": 7733,
      "Ġbreakfast": 7734,
      "lace": 7735,
      "worth": 7736,
      "rance": 7737,
      "ordan": 7738,
      "Ġgotten": 7739,
      "Ġaer": 7740,
      "ĠReal": 7741,
      "ĠNetwork": 7742,
      "Ġupcoming": 7743,
      "ĠWars": 7744,
      "ĠMarket": 7745,
      "De": 7746,
      "rors": 7747,
      "Ġyog": 7748,
      "ĠGall": 7749,
      "Ġcapture": 7750,
      "ĠThanks": 7751,
      "iana": 7752,
      "Ġphase": 7753,
      "Ġcontrolled": 7754,
      "ĠHouston": 7755,
      "Ġneut": 7756,
      "ĠGra": 7757,
      "ĠConf": 7758,
      "Ġsecretary": 7759,
      "Ġtopic": 7760,
      "Ġfees": 7761,
      "ĠGar": 7762,
      "Ġobtained": 7763,
      "inking": 7764,
      "Ġpip": 7765,
      "Ġcrab": 7766,
      "Ġhonor": 7767,
      "enger": 7768,
      "umpy": 7769,
      "itional": 7770,
      "Ġreturning": 7771,
      "Ġtechniques": 7772,
      "ĠKat": 7773,
      "Ġbes": 7774,
      "Ġprize": 7775,
      "ĠViet": 7776,
      "Ġparliament": 7777,
      "Ġoccas": 7778,
      "ĠAdminist": 7779,
      "ĠMuslims": 7780,
      "called": 7781,
      "ĠOs": 7782,
      "iously": 7783,
      "Ġ00": 7784,
      "ura": 7785,
      "Ġ=>": 7786,
      "Ġkicked": 7787,
      "azy": 7788,
      "iami": 7789,
      "Ġregularly": 7790,
      "ĠIP": 7791,
      "Ġfewer": 7792,
      "Ġrelief": 7793,
      "ĠOrgan": 7794,
      "umes": 7795,
      "ĠMiller": 7796,
      "Ġoverwhel": 7797,
      "icop": 7798,
      "ĠJac": 7799,
      "cript": 7800,
      "Ġfactory": 7801,
      "Ġedition": 7802,
      "ba": 7803,
      "Ġhook": 7804,
      "lers": 7805,
      "def": 7806,
      "vy": 7807,
      "ĠYouTube": 7808,
      "ĠTurn": 7809,
      "LC": 7810,
      "Ġsigning": 7811,
      "ĠTem": 7812,
      "fire": 7813,
      "Ġsample": 7814,
      "Ġrescue": 7815,
      "Ġgoods": 7816,
      "Ġpicking": 7817,
      "ĠOk": 7818,
      "ĠThree": 7819,
      "Ġbags": 7820,
      "Ġbunch": 7821,
      "Ġassets": 7822,
      "ĠConstitution": 7823,
      "Ġfraud": 7824,
      "Ġrating": 7825,
      "Ġproducer": 7826,
      "ĠBrian": 7827,
      "67": 7828,
      "ĠBud": 7829,
      "ĠWr": 7830,
      "jo": 7831,
      "Ġfro": 7832,
      "Ġinvolving": 7833,
      "Ġofficially": 7834,
      "Ġsympt": 7835,
      "Ġ1960": 7836,
      "iot": 7837,
      "Ġmm": 7838,
      "Ġthreats": 7839,
      "everal": 7840,
      "bour": 7841,
      "DS": 7842,
      "Ġbranches": 7843,
      "Ġenjoying": 7844,
      "ĠZealand": 7845,
      "ĠUkraine": 7846,
      "ml": 7847,
      "mun": 7848,
      "ĠHun": 7849,
      "Ġfurn": 7850,
      "ĠAbout": 7851,
      "Ġconscious": 7852,
      "Ġseed": 7853,
      "Ġstadium": 7854,
      "Ġstops": 7855,
      "rett": 7856,
      "Ġmainly": 7857,
      "Ġterrorist": 7858,
      "Ġnarrow": 7859,
      "Ġ400": 7860,
      "Ġunlikely": 7861,
      "Ġsty": 7862,
      "ĠContin": 7863,
      "Ġtrading": 7864,
      "Ġsanct": 7865,
      "Ġmedium": 7866,
      "Ġmob": 7867,
      "alo": 7868,
      "ĪĴ": 7869,
      "43": 7870,
      "illance": 7871,
      "ĠLew": 7872,
      "iro": 7873,
      "esters": 7874,
      "Ġresulted": 7875,
      "Ġbrush": 7876,
      "Ġcategory": 7877,
      "Today": 7878,
      "Ġ55": 7879,
      "Ġnewly": 7880,
      "ĠAvenue": 7881,
      "Ġreaching": 7882,
      "Ġ39": 7883,
      "Ġevil": 7884,
      "umbled": 7885,
      "Ġproved": 7886,
      "inding": 7887,
      "Ġprofile": 7888,
      "inter": 7889,
      "ĠEp": 7890,
      "anchester": 7891,
      "Ġcleaning": 7892,
      "Ġmagn": 7893,
      "ashes": 7894,
      "Ġsudden": 7895,
      "ĠAcc": 7896,
      "Ġincorpor": 7897,
      "Ġsafely": 7898,
      "Ġdeeply": 7899,
      "war": 7900,
      "Ġ2019": 7901,
      "Ġanalyst": 7902,
      "Ġdomin": 7903,
      "Ġepisodes": 7904,
      "Ġrecommended": 7905,
      "Ġmeetings": 7906,
      "ĠTal": 7907,
      "Ġacademic": 7908,
      "Ġsorts": 7909,
      "UR": 7910,
      "inem": 7911,
      "Ġdealing": 7912,
      "Ġcater": 7913,
      "Ġactivists": 7914,
      "Ġfingers": 7915,
      "Ġrepresented": 7916,
      "ĠGreek": 7917,
      "Ġchampionship": 7918,
      "ĠCivil": 7919,
      "ĠQueen": 7920,
      "asts": 7921,
      "Ġflour": 7922,
      "assion": 7923,
      "Ġok": 7924,
      "ĠTake": 7925,
      "Ġdiplom": 7926,
      "iration": 7927,
      "Ġshopping": 7928,
      "Ġachieved": 7929,
      "Ġprecise": 7930,
      "Ġallegations": 7931,
      "onic": 7932,
      "ĠArizona": 7933,
      "Ġhears": 7934,
      "Ġattached": 7935,
      "acc": 7936,
      "Ġlawsuit": 7937,
      ",[": 7938,
      "Ġequival": 7939,
      "ĠSir": 7940,
      "mes": 7941,
      "Ġgap": 7942,
      "Ġcaptain": 7943,
      "ĠEducation": 7944,
      "Ġvirtual": 7945,
      "ta": 7946,
      "Ġexception": 7947,
      "Ġrefere": 7948,
      "Ġconcluded": 7949,
      "ĠAuthor": 7950,
      "Ġinstalled": 7951,
      "ĠRomney": 7952,
      "Ġremark": 7953,
      "Ġtickets": 7954,
      "asters": 7955,
      "Ġstim": 7956,
      "orough": 7957,
      "Ġsentence": 7958,
      "Ġadopt": 7959,
      "Ġft": 7960,
      "oli": 7961,
      "Ġcooking": 7962,
      "Ġsplash": 7963,
      "Dr": 7964,
      "allas": 7965,
      "intend": 7966,
      "Ġwolf": 7967,
      "ĠLind": 7968,
      "Ġutil": 7969,
      "Ġfundamental": 7970,
      "ĠMir": 7971,
      "41": 7972,
      "Ġashamed": 7973,
      "Ġshoulder": 7974,
      "ĠFord": 7975,
      "Ġpainted": 7976,
      "adelph": 7977,
      "Ġ!": 7978,
      "Ġdeals": 7979,
      "Ġrank": 7980,
      "Ġyours": 7981,
      "Ġstrongly": 7982,
      "ĠMs": 7983,
      "Ġsupports": 7984,
      "ĠLive": 7985,
      "Ġsword": 7986,
      "Ġfounded": 7987,
      "Ġhappiness": 7988,
      "Ġemployee": 7989,
      "ĠAcademy": 7990,
      "Ġmenu": 7991,
      "foot": 7992,
      "Ġgarage": 7993,
      "Ġmos": 7994,
      "rical": 7995,
      "Ġ//": 7996,
      "Ġencoun": 7997,
      "Ġenthusi": 7998,
      "Ġatmosphere": 7999,
      "inity": 8000,
      "Ġillustr": 8001,
      "ĠDark": 8002,
      "orses": 8003,
      "Ġdemocracy": 8004,
      "Ġgrace": 8005,
      "Ġcomponents": 8006,
      "Ġbadly": 8007,
      "Ġinvestigate": 8008,
      "Ġattractive": 8009,
      "case": 8010,
      "ĠThough": 8011,
      "ĠSteven": 8012,
      "Ġregistered": 8013,
      "58": 8014,
      "ĠJosh": 8015,
      "Ġrecip": 8016,
      "Ġpraised": 8017,
      "Ġexcess": 8018,
      "ĠPolit": 8019,
      "Ġbreaks": 8020,
      "Ġproof": 8021,
      "Ġears": 8022,
      "ĠMuseum": 8023,
      "taining": 8024,
      "Ġjog": 8025,
      "Ġsandwich": 8026,
      "Ġfranchise": 8027,
      "essed": 8028,
      "tle": 8029,
      "antic": 8030,
      "ĠGreg": 8031,
      "Ġreveal": 8032,
      "Ġdriven": 8033,
      "Ġlifted": 8034,
      "ĠLater": 8035,
      "orted": 8036,
      "ressed": 8037,
      "Ġlobby": 8038,
      "Ġengaged": 8039,
      "Ġaudio": 8040,
      "Ġscheme": 8041,
      "adelphia": 8042,
      "Ġfolks": 8043,
      "Ġcurrency": 8044,
      "angle": 8045,
      "sm": 8046,
      "ĠMittens": 8047,
      "ĠLuc": 8048,
      "Ġtheat": 8049,
      "Ġcaption": 8050,
      "ĠDisney": 8051,
      "Ġsauce": 8052,
      "ĠDNA": 8053,
      "ĠDev": 8054,
      "andal": 8055,
      "Ġrally": 8056,
      "ĠBarack": 8057,
      "Ġpersonally": 8058,
      "Ġchampion": 8059,
      "Ġopponent": 8060,
      "ushing": 8061,
      "ĠNorthern": 8062,
      "Ġicon": 8063,
      "Ġparking": 8064,
      "Ġstruggling": 8065,
      "Ġ1997": 8066,
      "achel": 8067,
      "Ġtrucks": 8068,
      "Ġfestival": 8069,
      "Ġchairman": 8070,
      "keeper": 8071,
      "ye": 8072,
      "Ġbarrel": 8073,
      "Ġsituations": 8074,
      "ĠIT": 8075,
      "Ġencouraged": 8076,
      "ĠIII": 8077,
      "ĠCoast": 8078,
      "apse": 8079,
      "attered": 8080,
      "Ġprofit": 8081,
      "Ġtap": 8082,
      "po": 8083,
      "Ġtransp": 8084,
      "ece": 8085,
      "Ġguest": 8086,
      "Ġrecovery": 8087,
      "Ġwww": 8088,
      "PU": 8089,
      "Ġsheet": 8090,
      "ĠNation": 8091,
      "ĠDar": 8092,
      "Ġdeck": 8093,
      "Ġfruits": 8094,
      "ĠDetroit": 8095,
      "Ġconfront": 8096,
      "Ġdepending": 8097,
      "59": 8098,
      "Ġshake": 8099,
      "Ġcommunications": 8100,
      "Ġcontroversial": 8101,
      "oric": 8102,
      "Ġprocesses": 8103,
      "ĠSpain": 8104,
      "wan": 8105,
      "Ġcircles": 8106,
      "Ġpa": 8107,
      "ĠView": 8108,
      "Ġsignal": 8109,
      "Ġexposed": 8110,
      "Ġadopted": 8111,
      "ibilities": 8112,
      "Ġfright": 8113,
      "rete": 8114,
      "Ġliterally": 8115,
      "era": 8116,
      "vard": 8117,
      "Ġlimits": 8118,
      "ĠHave": 8119,
      "Ġriding": 8120,
      "Ġrespectively": 8121,
      "ĠMajor": 8122,
      "ĠCNN": 8123,
      "list": 8124,
      "Ġphenomen": 8125,
      "azi": 8126,
      "redit": 8127,
      "ras": 8128,
      "Ġgigg": 8129,
      "Ġax": 8130,
      "Ġyelled": 8131,
      "Ġpasses": 8132,
      "Ġgod": 8133,
      "Ġtechnologies": 8134,
      "Ġprince": 8135,
      "Ġroutine": 8136,
      "ington": 8137,
      "ÑĤ": 8138,
      "ĠCO": 8139,
      "Ġwrapped": 8140,
      "Ġconstantly": 8141,
      "ĠFood": 8142,
      "ĠBobby": 8143,
      "ĠTaylor": 8144,
      "Dad": 8145,
      "ancer": 8146,
      "Ġcomparison": 8147,
      "Ġtorn": 8148,
      "CE": 8149,
      "ĠMarc": 8150,
      "Ġdefinition": 8151,
      "Ġmerely": 8152,
      "style": 8153,
      "Ġsurgery": 8154,
      "Ġcontinuing": 8155,
      "fish": 8156,
      "Tommy": 8157,
      "ĠLabor": 8158,
      "Ġprotests": 8159,
      "vania": 8160,
      "ĠParliament": 8161,
      "Ġanticip": 8162,
      "Ġcarrot": 8163,
      "ĠHard": 8164,
      "ĠEastern": 8165,
      "mo": 8166,
      "Like": 8167,
      "ĠFoot": 8168,
      "Ġhorn": 8169,
      "Ġdiscovery": 8170,
      "Ġdeer": 8171,
      "gor": 8172,
      "Ġrug": 8173,
      "Ġsufficient": 8174,
      "Ġamounts": 8175,
      "Ġinqu": 8176,
      "ima": 8177,
      "Ġrival": 8178,
      "Ġcontributed": 8179,
      "ceived": 8180,
      "ĠMiami": 8181,
      "Ġ150": 8182,
      "uz": 8183,
      "Ġmainstream": 8184,
      "Sarah": 8185,
      "Ġcloset": 8186,
      "Ġtitles": 8187,
      "Ġreputation": 8188,
      "Ġassert": 8189,
      "Ġaccurate": 8190,
      "oster": 8191,
      "imp": 8192,
      "Ġthankful": 8193,
      "Ġfee": 8194,
      "rence": 8195,
      "ubble": 8196,
      "ĠHa": 8197,
      "Ġinstitution": 8198,
      "eding": 8199,
      "Ġ65": 8200,
      "Ġrejected": 8201,
      "Ġpuddle": 8202,
      "::": 8203,
      "ĠAsian": 8204,
      "ĠDid": 8205,
      "Ġemployment": 8206,
      "Ġgig": 8207,
      "Ġapartment": 8208,
      "Ġtargeted": 8209,
      "ĠMS": 8210,
      "onymous": 8211,
      "ĠColl": 8212,
      "quarters": 8213,
      "ĠEverywhere": 8214,
      "Ġspaces": 8215,
      "Ġ1996": 8216,
      "ĠAp": 8217,
      "Ġrequests": 8218,
      "Ġdegrees": 8219,
      "ĠSaudi": 8220,
      "Ġinformed": 8221,
      "regon": 8222,
      "Ġsettle": 8223,
      "Ġshares": 8224,
      "Ġsnacks": 8225,
      "Ġfeaturing": 8226,
      "ĠTele": 8227,
      "Ġeastern": 8228,
      "VD": 8229,
      "Ġallegedly": 8230,
      "ĠUt": 8231,
      "Ġsuicide": 8232,
      "Ġsomebody": 8233,
      "Ġscoring": 8234,
      "Ġvend": 8235,
      "Stop": 8236,
      "Ġtransm": 8237,
      "born": 8238,
      "Ġdeeper": 8239,
      "Ġstones": 8240,
      "Ġrepeatedly": 8241,
      "Any": 8242,
      "inder": 8243,
      "ĠAR": 8244,
      "ĠFollowing": 8245,
      "Ġ42": 8246,
      "ĠPay": 8247,
      "Ġfallen": 8248,
      "ĠÎ": 8249,
      "ĠCamer": 8250,
      "Ġvacc": 8251,
      "bal": 8252,
      "Ġfeedback": 8253,
      "',": 8254,
      "Ġparticipate": 8255,
      "ĠGi": 8256,
      "ĠConference": 8257,
      "onc": 8258,
      "owa": 8259,
      "Ġnecklace": 8260,
      "Ġreasonable": 8261,
      "Ġassistant": 8262,
      "92": 8263,
      "Ġadvis": 8264,
      "Ob": 8265,
      "Ġcarrots": 8266,
      "ĠManchester": 8267,
      "ester": 8268,
      "ĠMake": 8269,
      "ĠCall": 8270,
      "ĠPoint": 8271,
      "Ġpermanent": 8272,
      "Ġintellect": 8273,
      "ulating": 8274,
      "Ġpersonnel": 8275,
      "ĠNations": 8276,
      "Ġopponents": 8277,
      "Ġappreciate": 8278,
      "EW": 8279,
      "Ġtut": 8280,
      "agram": 8281,
      "ĠFair": 8282,
      "Ġoperate": 8283,
      "Ġcompens": 8284,
      "ĠArm": 8285,
      "ĠRex": 8286,
      "Ġlands": 8287,
      "ĠAD": 8288,
      "Ġprominent": 8289,
      "Ġroads": 8290,
      "Ġappointed": 8291,
      "Ġsquee": 8292,
      "Ġtip": 8293,
      "Ġentit": 8294,
      "ĠDefense": 8295,
      "Ġroles": 8296,
      "ĠAgency": 8297,
      "Ġruled": 8298,
      "Ġseeds": 8299,
      "ĠDig": 8300,
      "ĠPS": 8301,
      "Ġstraw": 8302,
      "ĠNHL": 8303,
      "Ġcage": 8304,
      "ĠTeddy": 8305,
      "Ġcourts": 8306,
      "Ġthrowing": 8307,
      "Ġvisitors": 8308,
      "Ġstations": 8309,
      "Ġtidy": 8310,
      "Ġduty": 8311,
      "Ġhockey": 8312,
      "ĠAndy": 8313,
      "Ġagric": 8314,
      "ubbles": 8315,
      "Ġpolite": 8316,
      "Ġpayments": 8317,
      "ilarly": 8318,
      "Ġmistakes": 8319,
      "Ġextract": 8320,
      "game": 8321,
      "97": 8322,
      "Ġshortly": 8323,
      "Ġhelicop": 8324,
      "cho": 8325,
      "Ġunex": 8326,
      "ĠLatin": 8327,
      "rain": 8328,
      "Ġdollar": 8329,
      "Ġengineering": 8330,
      "ĠMedic": 8331,
      "Ġclar": 8332,
      "Ġtwenty": 8333,
      "lights": 8334,
      "Ġboats": 8335,
      "Ġcomprom": 8336,
      "Ġshadow": 8337,
      "Ġrig": 8338,
      "Ġdescribes": 8339,
      "Ġchase": 8340,
      "96": 8341,
      "Ġdesper": 8342,
      "nesota": 8343,
      "Ġbuttons": 8344,
      "Ġdatabase": 8345,
      "ĠStat": 8346,
      "hent": 8347,
      "Ġ64": 8348,
      "ito": 8349,
      "etime": 8350,
      "Ġshocked": 8351,
      "Ġbom": 8352,
      "Ġcru": 8353,
      "aron": 8354,
      "Ġdispl": 8355,
      "Ġthreatened": 8356,
      "iner": 8357,
      "ĠInformation": 8358,
      "Ġfir": 8359,
      "Ġpounds": 8360,
      "Ġmyth": 8361,
      "Em": 8362,
      "Ġenemies": 8363,
      "Ġsupplies": 8364,
      "ĠBa": 8365,
      "Ġshield": 8366,
      "Will": 8367,
      "ĠKelly": 8368,
      "Ġsleeping": 8369,
      "Ġconstit": 8370,
      "ĠSat": 8371,
      "Ġsne": 8372,
      "Ġfault": 8373,
      "ĠId": 8374,
      "Ġpeak": 8375,
      "ĠPhiladelphia": 8376,
      "ĠBeach": 8377,
      "Ġhardly": 8378,
      "Ġfemin": 8379,
      "elp": 8380,
      "Ġmagnet": 8381,
      "Ġassume": 8382,
      "Ġadvertising": 8383,
      "Ġmessy": 8384,
      "ĠNC": 8385,
      "ĠJordan": 8386,
      "igure": 8387,
      "omething": 8388,
      "sea": 8389,
      "Ġpour": 8390,
      "Ġcreatures": 8391,
      "ĠJun": 8392,
      "Ġunw": 8393,
      "Ġconvent": 8394,
      "âĢĻ.": 8395,
      "bell": 8396,
      "Ġ2020": 8397,
      "istol": 8398,
      "Ġflexible": 8399,
      "Ġmemories": 8400,
      "ogen": 8401,
      "ĠCIA": 8402,
      "Ġintention": 8403,
      "Ġpod": 8404,
      "Ġgang": 8405,
      "Ġelectricity": 8406,
      "Ġstructures": 8407,
      "Ġqueen": 8408,
      "ĠPo": 8409,
      "ommod": 8410,
      "Ġimmigrants": 8411,
      "56": 8412,
      "Ġbarked": 8413,
      "ĠSC": 8414,
      "Ġcontained": 8415,
      "ĠLeo": 8416,
      "Int": 8417,
      "ĠSanta": 8418,
      "bridge": 8419,
      "Ġsoldier": 8420,
      "Ġtort": 8421,
      "Mar": 8422,
      "Ġmonit": 8423,
      "Ġdeleg": 8424,
      "ĠInvest": 8425,
      "Ġtravell": 8426,
      "Pol": 8427,
      "Ġdetermin": 8428,
      "Ġvisiting": 8429,
      "ORE": 8430,
      "Ġcopies": 8431,
      "Ġcontrols": 8432,
      "Ġcrop": 8433,
      "mann": 8434,
      "ĠBalt": 8435,
      "Ġaimed": 8436,
      "ĠFurther": 8437,
      "Fr": 8438,
      "ĠMoore": 8439,
      "Ġties": 8440,
      "Ġextension": 8441,
      "Ġpurchased": 8442,
      "Ġagenda": 8443,
      "Ġtear": 8444,
      "Ġawarded": 8445,
      "Ġbelt": 8446,
      "axy": 8447,
      "Ġimper": 8448,
      "Ġblame": 8449,
      "Ġnewslet": 8450,
      "Ġphr": 8451,
      "Ġdemands": 8452,
      "Ġranked": 8453,
      "Donald": 8454,
      "syl": 8455,
      "ĠAL": 8456,
      "Ġraising": 8457,
      "People": 8458,
      "Ġcrucial": 8459,
      "Ġunemploy": 8460,
      "hal": 8461,
      "ogan": 8462,
      "ĠISIS": 8463,
      "Ġsynt": 8464,
      "Ġparam": 8465,
      "Ġbark": 8466,
      "leton": 8467,
      "ĠHur": 8468,
      "Ġconclusion": 8469,
      "Ġcourage": 8470,
      "Ġsettled": 8471,
      "Ġcovers": 8472,
      "ĠTri": 8473,
      "Before": 8474,
      "Ġsurvive": 8475,
      "Ġfounder": 8476,
      "53": 8477,
      "52": 8478,
      "86": 8479,
      "Res": 8480,
      "Ġphotograph": 8481,
      "ĠPalestinian": 8482,
      "Ġlemon": 8483,
      "ĠTed": 8484,
      "Ġoutcome": 8485,
      "Ġtrib": 8486,
      "Ġcomic": 8487,
      "Ġlamp": 8488,
      "li": 8489,
      "Mum": 8490,
      "Ġapproached": 8491,
      "ĠStill": 8492,
      "Ġpled": 8493,
      "Ġautomatically": 8494,
      "Ġdescription": 8495,
      "orne": 8496,
      "Ġcongress": 8497,
      "Ġengage": 8498,
      "NC": 8499,
      "verty": 8500,
      "ĠLy": 8501,
      "Ġ47": 8502,
      "Ġsoul": 8503,
      "Ġdefeated": 8504,
      "Ġenable": 8505,
      "Ġrom": 8506,
      "Ġ1995": 8507,
      "Ġwithdraw": 8508,
      "Ġlazy": 8509,
      "ĠDesign": 8510,
      "ja": 8511,
      "ĠHead": 8512,
      "Ġdowntown": 8513,
      "Ġholes": 8514,
      "ĠRh": 8515,
      "ĠNever": 8516,
      "ĠBell": 8517,
      "Ġjewel": 8518,
      "Ġbin": 8519,
      "star": 8520,
      "Ġclaiming": 8521,
      "Ġinches": 8522,
      "Ġworker": 8523,
      "ĠTurk": 8524,
      "ĠAsh": 8525,
      "ilton": 8526,
      "Ġelsewhere": 8527,
      "Ġsurveillance": 8528,
      "Ġvary": 8529,
      "ĠField": 8530,
      "Ġinspect": 8531,
      "ĠEngine": 8532,
      "Ġrealised": 8533,
      "Ġpoverty": 8534,
      "Ġbitter": 8535,
      "ĠCommunity": 8536,
      "olt": 8537,
      "VER": 8538,
      "Ġstudied": 8539,
      "uted": 8540,
      "Ġdepression": 8541,
      "Ġintense": 8542,
      "Ġtrains": 8543,
      "'.": 8544,
      "ĠSpring": 8545,
      "ĠRa": 8546,
      "Ġpace": 8547,
      "Ġnarrative": 8548,
      "Ġexists": 8549,
      "ĠFund": 8550,
      "ĠCentre": 8551,
      "ĠFre": 8552,
      "ĠAnth": 8553,
      "ĠBuild": 8554,
      "Ġwedding": 8555,
      "ĠAtlantic": 8556,
      "fortable": 8557,
      "Sorry": 8558,
      "sec": 8559,
      "Ġequivalent": 8560,
      "Ġpoly": 8561,
      "Ġdesigns": 8562,
      "uction": 8563,
      "Ġlosses": 8564,
      "Ġignored": 8565,
      "ĠStone": 8566,
      "ĠJam": 8567,
      "Ġcontaining": 8568,
      "Ġwhale": 8569,
      "burgh": 8570,
      "itarian": 8571,
      "Ġaffili": 8572,
      "Ġrepro": 8573,
      "Ġdisappear": 8574,
      "rm": 8575,
      "Ġinstrument": 8576,
      "Ġpenalty": 8577,
      "ials": 8578,
      "Ġvisible": 8579,
      "illar": 8580,
      "Ġincredibly": 8581,
      "Ġprinciples": 8582,
      "uine": 8583,
      "athy": 8584,
      "ilipp": 8585,
      "Ġnavig": 8586,
      "ĠDallas": 8587,
      "Ġdecent": 8588,
      "emen": 8589,
      "was": 8590,
      "ĠCharlie": 8591,
      "Ġsomehow": 8592,
      "Ġcondem": 8593,
      "Ġliquid": 8594,
      "Ġdamaged": 8595,
      "ĠGirl": 8596,
      "Ġsaving": 8597,
      "Ġfierce": 8598,
      "aturally": 8599,
      "Despite": 8600,
      "Ġsoap": 8601,
      "Ġfed": 8602,
      "sylvania": 8603,
      "Ġreminded": 8604,
      "itals": 8605,
      "Ġworm": 8606,
      "Ġcher": 8607,
      "ĠOregon": 8608,
      "Ġmurd": 8609,
      "Two": 8610,
      "Ġformal": 8611,
      "roat": 8612,
      "atoes": 8613,
      "ĠRick": 8614,
      "ĠDun": 8615,
      "idelines": 8616,
      "Ġexposure": 8617,
      "Ġneighbour": 8618,
      "Ġbump": 8619,
      "Ġarguments": 8620,
      "Ġspicy": 8621,
      "Ġrolling": 8622,
      "ĠAttorney": 8623,
      "stance": 8624,
      "Ġignore": 8625,
      "enders": 8626,
      "oked": 8627,
      "Ġdiscipl": 8628,
      "Ġviewers": 8629,
      "spec": 8630,
      "Ġgenerate": 8631,
      "Ġuncertain": 8632,
      "ĠKey": 8633,
      "Br": 8634,
      "Ġrape": 8635,
      "cer": 8636,
      "HS": 8637,
      "PC": 8638,
      "ĠFamily": 8639,
      "Ġletting": 8640,
      "ĠReport": 8641,
      "urse": 8642,
      "Ġber": 8643,
      "Ġlandscape": 8644,
      "struction": 8645,
      "ĠVis": 8646,
      "bury": 8647,
      "ouncing": 8648,
      "ĠOS": 8649,
      "Ġmeasured": 8650,
      "Ġfoundation": 8651,
      "Ġscholars": 8652,
      "Ġcompete": 8653,
      "Ġmath": 8654,
      "woman": 8655,
      "ĠEdward": 8656,
      "ĠMinnesota": 8657,
      "ĠJava": 8658,
      "Ġdefence": 8659,
      "Ġbills": 8660,
      "usted": 8661,
      "raph": 8662,
      "Ġjelly": 8663,
      "Ġchat": 8664,
      "Also": 8665,
      "Ġavo": 8666,
      "ĠJay": 8667,
      "ĠGlobal": 8668,
      "Ġemerged": 8669,
      "Ġthousand": 8670,
      "ĠNASA": 8671,
      "ĠAS": 8672,
      "ĠRadio": 8673,
      "Ġcomplicated": 8674,
      "orge": 8675,
      "Ġsocc": 8676,
      "Ġprovince": 8677,
      "Ġscrew": 8678,
      "Ġabortion": 8679,
      "Ġsighed": 8680,
      "spe": 8681,
      "Ġproducing": 8682,
      "Ġaccommod": 8683,
      "Ġprocessing": 8684,
      "Ġhistoric": 8685,
      "Ġgenerated": 8686,
      "Ġnods": 8687,
      "icking": 8688,
      "Ġ1994": 8689,
      "Ġsoccer": 8690,
      "Ġindex": 8691,
      "Ġ44": 8692,
      "Per": 8693,
      "ĠPop": 8694,
      "dit": 8695,
      "Ġchoo": 8696,
      "Ġspots": 8697,
      "ĠBowl": 8698,
      "heart": 8699,
      "Ġconsumption": 8700,
      "Ġexpectations": 8701,
      "Ġloop": 8702,
      "Ġforum": 8703,
      "Ġentering": 8704,
      "abis": 8705,
      "Ġclubs": 8706,
      "Ġsup": 8707,
      "ipal": 8708,
      "Ġscarf": 8709,
      "Ġelectronic": 8710,
      "ĠThus": 8711,
      "Ġcries": 8712,
      "ĠMars": 8713,
      "Ġpor": 8714,
      "Ġterrorism": 8715,
      "omed": 8716,
      "ĠSquare": 8717,
      "laimed": 8718,
      "Ġdrag": 8719,
      "ĠDead": 8720,
      "Ġstrict": 8721,
      "Ġsymptoms": 8722,
      "Ġfuck": 8723,
      "Ġchances": 8724,
      "Ġastr": 8725,
      "Ġrefugees": 8726,
      "Ġperforming": 8727,
      "Se": 8728,
      "pan": 8729,
      "iary": 8730,
      "54": 8731,
      "Ġbarely": 8732,
      "Ġserves": 8733,
      "ĠCruz": 8734,
      "endar": 8735,
      "ĠOrig": 8736,
      "aska": 8737,
      "Ġrapidly": 8738,
      "Ġsuffer": 8739,
      "sole": 8740,
      "ĠCirc": 8741,
      "Ġdisaster": 8742,
      "Ġprogramming": 8743,
      "Ġmissile": 8744,
      "Ġfishing": 8745,
      "lies": 8746,
      "Ġpie": 8747,
      "Ġallies": 8748,
      "ĠWould": 8749,
      "Ġsatell": 8750,
      "twitter": 8751,
      "Ġintelligent": 8752,
      "Ġcited": 8753,
      "door": 8754,
      "300": 8755,
      "ĠPete": 8756,
      "Ġnormally": 8757,
      "Ġlanguages": 8758,
      "Ġmodest": 8759,
      "Ġjournalists": 8760,
      "ĠMedical": 8761,
      "Ġmarks": 8762,
      "Ġestimates": 8763,
      "Ġrarely": 8764,
      "abeth": 8765,
      "Ġkitten": 8766,
      "Ġdeveloper": 8767,
      "Ġmanufacturing": 8768,
      "oa": 8769,
      "ione": 8770,
      "ĠAlice": 8771,
      "ĠAND": 8772,
      "ĠPutin": 8773,
      "Ġreverse": 8774,
      "Ġoverse": 8775,
      "Ġwebsites": 8776,
      "Ġinnoc": 8777,
      "MP": 8778,
      "Ġjam": 8779,
      "Ġmovements": 8780,
      "engers": 8781,
      "ĠData": 8782,
      "Ġharsh": 8783,
      "eler": 8784,
      "Ġwage": 8785,
      "Ġjet": 8786,
      "mad": 8787,
      "Ġ46": 8788,
      "Rel": 8789,
      "Ġnomine": 8790,
      "Ġbacked": 8791,
      "Ġportray": 8792,
      "Ġcasual": 8793,
      "ĠPy": 8794,
      "uties": 8795,
      "Ġbehalf": 8796,
      "Ġconvin": 8797,
      "cow": 8798,
      "teen": 8799,
      "urrent": 8800,
      "Ġpractical": 8801,
      "Ġmeadow": 8802,
      "Ġwaters": 8803,
      "Ġgolf": 8804,
      "onsin": 8805,
      "bro": 8806,
      "Ġgaming": 8807,
      "ĠSS": 8808,
      "ĠAlbert": 8809,
      "Ġobtain": 8810,
      "Ñģ": 8811,
      "isconsin": 8812,
      "Ġkissed": 8813,
      "Ġtasks": 8814,
      "zing": 8815,
      "Ġuncomfortable": 8816,
      "Ġexplanation": 8817,
      "Ġaggressive": 8818,
      "ĠPennsylvania": 8819,
      "Ġfighters": 8820,
      "Ġblind": 8821,
      "Ġhired": 8822,
      "etary": 8823,
      "Ġtips": 8824,
      "Ġghost": 8825,
      "tenance": 8826,
      "Ġemissions": 8827,
      "etts": 8828,
      "ĠOak": 8829,
      "Ġsounded": 8830,
      "ĠCheck": 8831,
      "zens": 8832,
      "Ġdiamond": 8833,
      "ĠUse": 8834,
      "Ġmanip": 8835,
      "Ġregardless": 8836,
      "Ġretired": 8837,
      "ĠUr": 8838,
      "Ġsubsid": 8839,
      "Ġdivided": 8840,
      "Ġlets": 8841,
      "Ð½": 8842,
      "Ġsinger": 8843,
      "ĠJerry": 8844,
      "Ġinsisted": 8845,
      "Ġpossession": 8846,
      "Ġmayor": 8847,
      "ultural": 8848,
      "achus": 8849,
      "ifies": 8850,
      "Ġtunnel": 8851,
      "ĠKir": 8852,
      "Ġhorses": 8853,
      "ĠFull": 8854,
      "Ġjoining": 8855,
      "Ġcomprehens": 8856,
      "Ġtechnique": 8857,
      "Ġtwist": 8858,
      "olis": 8859,
      "isan": 8860,
      "Ġrecognition": 8861,
      "Ġrushed": 8862,
      "abama": 8863,
      "riers": 8864,
      "Ġrib": 8865,
      "Ġclown": 8866,
      "ĠExt": 8867,
      "iversary": 8868,
      "85": 8869,
      "Ġwarrant": 8870,
      "Ġdozen": 8871,
      "Ġindicated": 8872,
      "ĠCook": 8873,
      "ĠAh": 8874,
      "Ġexternal": 8875,
      "Ġregister": 8876,
      "Ġ41": 8877,
      "%)": 8878,
      "rep": 8879,
      "ureau": 8880,
      "Add": 8881,
      "ĠHD": 8882,
      "Ġinstructions": 8883,
      "Ne": 8884,
      "Ġcounsel": 8885,
      "uality": 8886,
      "ĠPack": 8887,
      "front": 8888,
      "ĠJason": 8889,
      "Molly": 8890,
      "oir": 8891,
      "ĠThrough": 8892,
      "CS": 8893,
      "Ġhitting": 8894,
      "ĠIndepend": 8895,
      "lined": 8896,
      "Ġillness": 8897,
      "ĠPot": 8898,
      "Ġignor": 8899,
      "Ġfiction": 8900,
      "Ġmask": 8901,
      "Ġelig": 8902,
      "izon": 8903,
      "ĠMah": 8904,
      "87": 8905,
      "Ġarrang": 8906,
      "Ġexceed": 8907,
      "Ġrice": 8908,
      "Ġindicate": 8909,
      "Ġpublication": 8910,
      "olen": 8911,
      "Ġchallenging": 8912,
      "Ġglue": 8913,
      "itionally": 8914,
      "ealous": 8915,
      "Ġads": 8916,
      "ĠPrince": 8917,
      "ĠBall": 8918,
      "igen": 8919,
      "uns": 8920,
      "Ġplayground": 8921,
      "anted": 8922,
      "Ġodd": 8923,
      "Ġbicy": 8924,
      "Ġdepos": 8925,
      "from": 8926,
      "ĠEmpire": 8927,
      "Ġcreates": 8928,
      "ĠCorpor": 8929,
      "Ġactors": 8930,
      "ĠDog": 8931,
      "ĠSenator": 8932,
      "ouch": 8933,
      "Ġlux": 8934,
      "Ġarrive": 8935,
      "Ġcounted": 8936,
      "Ġhanging": 8937,
      "Ġruined": 8938,
      "ĠBry": 8939,
      "making": 8940,
      "Ġprotesters": 8941,
      "utter": 8942,
      "Ġentertainment": 8943,
      "uten": 8944,
      "ĠNBC": 8945,
      "Ġnic": 8946,
      "Ġpresents": 8947,
      "Ġfeathers": 8948,
      "mod": 8949,
      "ĠLu": 8950,
      "esy": 8951,
      "Ġburied": 8952,
      "found": 8953,
      "ĠIowa": 8954,
      "Ġsparkly": 8955,
      "Ġfantastic": 8956,
      "ĠEverything": 8957,
      "ĠList": 8958,
      "Ġsurre": 8959,
      "Ġassigned": 8960,
      "issors": 8961,
      "ĠPolicy": 8962,
      "ĠMaster": 8963,
      "ĠHay": 8964,
      "ĠAdministration": 8965,
      "Ġchapter": 8966,
      "Ġfinance": 8967,
      "inois": 8968,
      "Ġsleepy": 8969,
      "usting": 8970,
      "Ġsevent": 8971,
      "ĠKr": 8972,
      "achusetts": 8973,
      "ĠBul": 8974,
      "iscal": 8975,
      "Ġgenuine": 8976,
      "Ġfulf": 8977,
      "Ġcomputers": 8978,
      "Ġsailed": 8979,
      "world": 8980,
      "UN": 8981,
      "Ġlegend": 8982,
      "Ġheading": 8983,
      "ÑĢ": 8984,
      "Ġwheels": 8985,
      "Ġimplementation": 8986,
      "ogy": 8987,
      "aa": 8988,
      "ĠKeep": 8989,
      "Ġtrained": 8990,
      "Ġsubsequent": 8991,
      "Rec": 8992,
      "bb": 8993,
      "odd": 8994,
      "izzy": 8995,
      "ami": 8996,
      "Ġexclusive": 8997,
      "Ġnowhere": 8998,
      "Ġexpanded": 8999,
      "Thanks": 9000,
      "Ġrear": 9001,
      "Ġphones": 9002,
      "irts": 9003,
      "Ġcomponent": 9004,
      "Ġprivile": 9005,
      "elcome": 9006,
      "Ġfriendship": 9007,
      "Ġfarmers": 9008,
      "Ġdestruction": 9009,
      "ĠLine": 9010,
      "ĠTob": 9011,
      "ĠEliz": 9012,
      "gie": 9013,
      "ĠHor": 9014,
      "Ġ43": 9015,
      "Ġestablishment": 9016,
      "ĠStart": 9017,
      "arked": 9018,
      "Ġbrowser": 9019,
      "ĠAud": 9020,
      "Ġquit": 9021,
      "ĠColumbia": 9022,
      "ĠPerson": 9023,
      "Ġchecked": 9024,
      "Ġ($": 9025,
      "Ġfirms": 9026,
      "fol": 9027,
      "Ġvulnerable": 9028,
      "mate": 9029,
      "Ġnegotiations": 9030,
      "Ġpriority": 9031,
      "Ġroy": 9032,
      "Ġmystery": 9033,
      "Ġlayer": 9034,
      "ĠBroad": 9035,
      "Ġsettlement": 9036,
      "ĠManagement": 9037,
      "ĠForeign": 9038,
      "Ġunp": 9039,
      "umin": 9040,
      "itches": 9041,
      "elfare": 9042,
      "ML": 9043,
      "Ġtrem": 9044,
      "Ġcomplaint": 9045,
      "vals": 9046,
      "GBT": 9047,
      "Ġturt": 9048,
      "Ġsink": 9049,
      "itage": 9050,
      "ali": 9051,
      "uy": 9052,
      "Ġcleaned": 9053,
      "ĠDiego": 9054,
      "Ġshelter": 9055,
      "Ġrely": 9056,
      "Ġnicely": 9057,
      "51": 9058,
      "Ġbegun": 9059,
      "die": 9060,
      "Ġphilosophy": 9061,
      "Ġvess": 9062,
      "Ġbars": 9063,
      "eland": 9064,
      "Ġexit": 9065,
      "obs": 9066,
      "Ġtons": 9067,
      "Ġreduction": 9068,
      "76": 9069,
      "ĠBrother": 9070,
      "%.": 9071,
      "âĢĻ,": 9072,
      "Ġwrap": 9073,
      "idency": 9074,
      "iece": 9075,
      "Ġregret": 9076,
      "iler": 9077,
      "aret": 9078,
      "RS": 9079,
      "pton": 9080,
      "ĠSP": 9081,
      "aka": 9082,
      "Ġaccomplish": 9083,
      "Ġgonna": 9084,
      "Ġcricket": 9085,
      "Ġprotein": 9086,
      "Ġcommonly": 9087,
      "ĠHospital": 9088,
      "ĠNote": 9089,
      "gorith": 9090,
      "Ġveteran": 9091,
      "espread": 9092,
      "HA": 9093,
      "imore": 9094,
      "hero": 9095,
      "Ġapplic": 9096,
      "Ġracing": 9097,
      "Ġwishes": 9098,
      "Ġcompassion": 9099,
      "cling": 9100,
      "Ġvital": 9101,
      "dis": 9102,
      "Ġinfant": 9103,
      "Ġbelonged": 9104,
      "Ġinner": 9105,
      "Ġchew": 9106,
      "Ġrecover": 9107,
      "Ġexplored": 9108,
      "Ġdict": 9109,
      "Ġinterface": 9110,
      "Joe": 9111,
      "EA": 9112,
      "ĠProv": 9113,
      "Ġcontracts": 9114,
      "mary": 9115,
      "Ġconvinced": 9116,
      "Ġburning": 9117,
      "Ġ1992": 9118,
      "Ġsubjects": 9119,
      "asty": 9120,
      "Ġcats": 9121,
      "Ġtox": 9122,
      "Ġboot": 9123,
      "Ġpolls": 9124,
      "Ġlawyers": 9125,
      "ĠIndust": 9126,
      "Ġassociation": 9127,
      "Ġcameras": 9128,
      "ĠBad": 9129,
      "Ġrepresentative": 9130,
      "ĠWisconsin": 9131,
      "this": 9132,
      "Ġreplacement": 9133,
      "Ġrural": 9134,
      "etch": 9135,
      "Ġtheater": 9136,
      "Ġpenc": 9137,
      "ĠBrook": 9138,
      "Ġreporter": 9139,
      "Ġjealous": 9140,
      "Ġcrypt": 9141,
      "Ġsurrounded": 9142,
      "post": 9143,
      "ĠRen": 9144,
      "Ġfleet": 9145,
      "Ġpiano": 9146,
      "Ġwarn": 9147,
      "eries": 9148,
      "ĠPhilipp": 9149,
      "isdom": 9150,
      "Ġmild": 9151,
      "ĠBridge": 9152,
      "merce": 9153,
      "herent": 9154,
      "Ġscissors": 9155,
      "Jane": 9156,
      "Ġalien": 9157,
      "lan": 9158,
      "Ġproport": 9159,
      "Ġsacrif": 9160,
      "ji": 9161,
      "Ġproven": 9162,
      "Post": 9163,
      "Ġstrengthen": 9164,
      "ĠMassachusetts": 9165,
      "Ġcycl": 9166,
      "ĠPatrick": 9167,
      "Ġcaterp": 9168,
      "ĠAlabama": 9169,
      "Ġstatue": 9170,
      "Ġfabric": 9171,
      "Ġloose": 9172,
      "ira": 9173,
      "Ġindependence": 9174,
      "Ġresource": 9175,
      "ĠPremier": 9176,
      "obb": 9177,
      "rolled": 9178,
      "Ġroster": 9179,
      "ĠFestival": 9180,
      "Ġtub": 9181,
      "Ġbake": 9182,
      "mony": 9183,
      "ĠBear": 9184,
      "there": 9185,
      "Ġcoalition": 9186,
      "ĠOtt": 9187,
      "Ġtoler": 9188,
      "Ġtropical": 9189,
      "Ġfoods": 9190,
      "Ġrequested": 9191,
      "Ġmarry": 9192,
      "ĠWW": 9193,
      "Ġoffices": 9194,
      "Ġprinciple": 9195,
      "Ġraces": 9196,
      "Ġhopping": 9197,
      "Ġ1950": 9198,
      "profit": 9199,
      "Ġstrategic": 9200,
      "Ġneutral": 9201,
      "ez": 9202,
      "Ġvib": 9203,
      "Ġlists": 9204,
      "ho": 9205,
      "Ġfootage": 9206,
      "ĠRevolution": 9207,
      "Ġunn": 9208,
      "pat": 9209,
      "Sec": 9210,
      "Ġanch": 9211,
      "ĠBang": 9212,
      "Ġaver": 9213,
      "Ġrush": 9214,
      "Ġreducing": 9215,
      "ĠLim": 9216,
      "ĠON": 9217,
      "Ġdrama": 9218,
      "Ġscores": 9219,
      "Ġbattles": 9220,
      "heim": 9221,
      "bi": 9222,
      "kel": 9223,
      "Ġeveryday": 9224,
      "Ġgrounds": 9225,
      "Ġtiss": 9226,
      "Ġhurts": 9227,
      "Ġracial": 9228,
      "Ġthrown": 9229,
      "Ġcomedy": 9230,
      "ĠUlt": 9231,
      "Ġdates": 9232,
      "Ġequally": 9233,
      "Ġdump": 9234,
      "Ġpoison": 9235,
      "ĠGolden": 9236,
      "oval": 9237,
      "oen": 9238,
      "Ġrhy": 9239,
      "ĠLewis": 9240,
      "uper": 9241,
      "Ġdistant": 9242,
      "Ġimprovement": 9243,
      "ĠRoss": 9244,
      "Ġcontribute": 9245,
[...]
